<?xml version="1.0"?>
<opencv_storage>
<cascade>
  <stageType>BOOST</stageType>
  <featureType>HOG</featureType>
  <height>50</height>
  <width>25</width>
  <stageParams>
    <boostType>GAB</boostType>
    <minHitRate>9.9500000476837158e-001</minHitRate>
    <maxFalseAlarm>5.0000000000000000e-001</maxFalseAlarm>
    <weightTrimRate>9.4999998807907104e-001</weightTrimRate>
    <maxDepth>1</maxDepth>
    <maxWeakCount>100</maxWeakCount></stageParams>
  <featureParams>
    <maxCatCount>0</maxCatCount>
    <featSize>36</featSize></featureParams>
  <stageNum>28</stageNum>
  <stages>
    <!-- stage 0 -->
    <_>
      <maxWeakCount>1</maxWeakCount>
      <stageThreshold>1.</stageThreshold>
      <weakClassifiers>
        <_>
          <internalNodes>
            0 -1 585 4.2757081246236339e-005</internalNodes>
          <leafValues>
            -9.7628456354141235e-001 1.</leafValues></_></weakClassifiers></_>
    <!-- stage 1 -->
    <_>
      <maxWeakCount>6</maxWeakCount>
      <stageThreshold>-5.8642171323299408e-002</stageThreshold>
      <weakClassifiers>
        <_>
          <internalNodes>
            0 -1 449 5.1442116498947144e-002</internalNodes>
          <leafValues>
            9.4716155529022217e-001 -4.6382978558540344e-001</leafValues></_>
        <_>
          <internalNodes>
            0 -1 414 3.1519386917352676e-002</internalNodes>
          <leafValues>
            8.4825068712234497e-001 -4.9391654133796692e-001</leafValues></_>
        <_>
          <internalNodes>
            0 -1 622 2.0954178646206856e-002</internalNodes>
          <leafValues>
            7.2631484270095825e-001 -4.8030588030815125e-001</leafValues></_>
        <_>
          <internalNodes>
            0 -1 23 4.8124082386493683e-003</internalNodes>
          <leafValues>
            7.8506267070770264e-001 -3.9763414859771729e-001</leafValues></_>
        <_>
          <internalNodes>
            0 -1 84 4.0148915722966194e-003</internalNodes>
          <leafValues>
            8.0086487531661987e-001 -2.7574738860130310e-001</leafValues></_>
        <_>
          <internalNodes>
            0 -1 259 1.2530467938631773e-003</internalNodes>
          <leafValues>
            6.4180016517639160e-001 -2.6583236455917358e-001</leafValues></_></weakClassifiers></_>
    <!-- stage 2 -->
    <_>
      <maxWeakCount>8</maxWeakCount>
      <stageThreshold>-1.3271315395832062e-001</stageThreshold>
      <weakClassifiers>
        <_>
          <internalNodes>
            0 -1 458 6.3812151551246643e-002</internalNodes>
          <leafValues>
            9.1809928417205811e-001 -5.7966101169586182e-001</leafValues></_>
        <_>
          <internalNodes>
            0 -1 23 9.9382568150758743e-003</internalNodes>
          <leafValues>
            8.2556980848312378e-001 -9.8053030669689178e-002</leafValues></_>
        <_>
          <internalNodes>
            0 -1 469 2.1952334791421890e-002</internalNodes>
          <leafValues>
            5.1440131664276123e-001 -4.8416361212730408e-001</leafValues></_>
        <_>
          <internalNodes>
            0 -1 595 1.9547794014215469e-002</internalNodes>
          <leafValues>
            -4.4853863120079041e-001 4.5836725831031799e-001</leafValues></_>
        <_>
          <internalNodes>
            0 -1 353 4.8235226422548294e-003</internalNodes>
          <leafValues>
            5.6856769323348999e-001 -3.4331670403480530e-001</leafValues></_>
        <_>
          <internalNodes>
            0 -1 478 1.8074467778205872e-002</internalNodes>
          <leafValues>
            -3.9158171415328979e-001 3.7101697921752930e-001</leafValues></_>
        <_>
          <internalNodes>
            0 -1 625 2.2017840296030045e-002</internalNodes>
          <leafValues>
            -5.8009958267211914e-001 2.3301623761653900e-001</leafValues></_>
        <_>
          <internalNodes>
            0 -1 459 1.4505348168313503e-002</internalNodes>
          <leafValues>
            3.1697025895118713e-001 -4.2508086562156677e-001</leafValues></_></weakClassifiers></_>
    <!-- stage 3 -->
    <_>
      <maxWeakCount>10</maxWeakCount>
      <stageThreshold>7.0329584181308746e-002</stageThreshold>
      <weakClassifiers>
        <_>
          <internalNodes>
            0 -1 582 8.5034258663654327e-002</internalNodes>
          <leafValues>
            9.1187739372253418e-001 -4.7639486193656921e-001</leafValues></_>
        <_>
          <internalNodes>
            0 -1 3 2.0867628045380116e-003</internalNodes>
          <leafValues>
            8.8516253232955933e-001 -2.7598399668931961e-002</leafValues></_>
        <_>
          <internalNodes>
            0 -1 9 1.3994213193655014e-002</internalNodes>
          <leafValues>
            -2.3840355873107910e-001 6.7309588193893433e-001</leafValues></_>
        <_>
          <internalNodes>
            0 -1 405 3.3236514776945114e-002</internalNodes>
          <leafValues>
            -4.9791812896728516e-001 4.5406439900398254e-001</leafValues></_>
        <_>
          <internalNodes>
            0 -1 336 2.4404274299740791e-003</internalNodes>
          <leafValues>
            6.4690482616424561e-001 -2.9208400845527649e-001</leafValues></_>
        <_>
          <internalNodes>
            0 -1 472 2.3585695773363113e-002</internalNodes>
          <leafValues>
            -4.0235000848770142e-001 4.1049265861511230e-001</leafValues></_>
        <_>
          <internalNodes>
            0 -1 23 2.9206599574536085e-003</internalNodes>
          <leafValues>
            4.5033892989158630e-001 -3.3522307872772217e-001</leafValues></_>
        <_>
          <internalNodes>
            0 -1 480 6.9800182245671749e-003</internalNodes>
          <leafValues>
            -4.3871521949768066e-001 3.2297801971435547e-001</leafValues></_>
        <_>
          <internalNodes>
            0 -1 658 3.1926803290843964e-002</internalNodes>
          <leafValues>
            -4.5472648739814758e-001 3.2609659433364868e-001</leafValues></_>
        <_>
          <internalNodes>
            0 -1 55 1.5744630247354507e-002</internalNodes>
          <leafValues>
            2.7093520760536194e-001 -4.8256784677505493e-001</leafValues></_></weakClassifiers></_>
    <!-- stage 4 -->
    <_>
      <maxWeakCount>17</maxWeakCount>
      <stageThreshold>3.8555815815925598e-002</stageThreshold>
      <weakClassifiers>
        <_>
          <internalNodes>
            0 -1 414 6.9130428135395050e-002</internalNodes>
          <leafValues>
            9.0548843145370483e-001 -4.4966444373130798e-001</leafValues></_>
        <_>
          <internalNodes>
            0 -1 3 1.4587850309908390e-003</internalNodes>
          <leafValues>
            7.7650320529937744e-001 8.6034312844276428e-002</leafValues></_>
        <_>
          <internalNodes>
            0 -1 487 1.2659387663006783e-002</internalNodes>
          <leafValues>
            -2.6771384477615356e-001 5.1533478498458862e-001</leafValues></_>
        <_>
          <internalNodes>
            0 -1 643 1.8253855407238007e-002</internalNodes>
          <leafValues>
            3.2600206136703491e-001 -4.8914259672164917e-001</leafValues></_>
        <_>
          <internalNodes>
            0 -1 55 1.9255989463999867e-003</internalNodes>
          <leafValues>
            4.2938429117202759e-001 -2.6267564296722412e-001</leafValues></_>
        <_>
          <internalNodes>
            0 -1 9 6.1034657992422581e-003</internalNodes>
          <leafValues>
            -4.7849223017692566e-001 2.5207230448722839e-001</leafValues></_>
        <_>
          <internalNodes>
            0 -1 280 2.6556346565485001e-003</internalNodes>
          <leafValues>
            4.3926882743835449e-001 -2.6528072357177734e-001</leafValues></_>
        <_>
          <internalNodes>
            0 -1 575 1.3110652565956116e-002</internalNodes>
          <leafValues>
            -4.0614235401153564e-001 2.5172045826911926e-001</leafValues></_>
        <_>
          <internalNodes>
            0 -1 404 4.3574399314820766e-003</internalNodes>
          <leafValues>
            -6.0260683298110962e-001 1.4540809392929077e-001</leafValues></_>
        <_>
          <internalNodes>
            0 -1 23 9.0581062249839306e-004</internalNodes>
          <leafValues>
            4.0792167186737061e-001 -2.4621991813182831e-001</leafValues></_>
        <_>
          <internalNodes>
            0 -1 619 1.2917283922433853e-002</internalNodes>
          <leafValues>
            -4.4195660948753357e-001 1.8385800719261169e-001</leafValues></_>
        <_>
          <internalNodes>
            0 -1 449 1.9798623397946358e-002</internalNodes>
          <leafValues>
            1.7507985234260559e-001 -4.6272763609886169e-001</leafValues></_>
        <_>
          <internalNodes>
            0 -1 557 3.1045218929648399e-003</internalNodes>
          <leafValues>
            -4.1937026381492615e-001 2.1616962552070618e-001</leafValues></_>
        <_>
          <internalNodes>
            0 -1 259 9.9123816471546888e-004</internalNodes>
          <leafValues>
            4.2652842402458191e-001 -2.2249773144721985e-001</leafValues></_>
        <_>
          <internalNodes>
            0 -1 502 1.8474187701940536e-002</internalNodes>
          <leafValues>
            -2.8259500861167908e-001 2.8945079445838928e-001</leafValues></_>
        <_>
          <internalNodes>
            0 -1 16 4.0234513580799103e-002</internalNodes>
          <leafValues>
            -1.4705997705459595e-001 4.8893457651138306e-001</leafValues></_>
        <_>
          <internalNodes>
            0 -1 655 2.4784840643405914e-002</internalNodes>
          <leafValues>
            1.6442887485027313e-001 -3.8886865973472595e-001</leafValues></_></weakClassifiers></_>
    <!-- stage 5 -->
    <_>
      <maxWeakCount>3</maxWeakCount>
      <stageThreshold>4.9943238496780396e-001</stageThreshold>
      <weakClassifiers>
        <_>
          <internalNodes>
            0 -1 2 9.6240919083356857e-003</internalNodes>
          <leafValues>
            9.6911621093750000e-001 4.3430519104003906e-001</leafValues></_>
        <_>
          <internalNodes>
            0 -1 421 1.7517596483230591e-002</internalNodes>
          <leafValues>
            8.5041564702987671e-001 -1.6369165480136871e-001</leafValues></_>
        <_>
          <internalNodes>
            0 -1 622 1.3805078342556953e-002</internalNodes>
          <leafValues>
            7.6215976476669312e-001 -3.0599215626716614e-001</leafValues></_></weakClassifiers></_>
    <!-- stage 6 -->
    <_>
      <maxWeakCount>5</maxWeakCount>
      <stageThreshold>3.1038157641887665e-002</stageThreshold>
      <weakClassifiers>
        <_>
          <internalNodes>
            0 -1 2 4.3204212561249733e-003</internalNodes>
          <leafValues>
            9.7889286279678345e-001 5.3240221738815308e-001</leafValues></_>
        <_>
          <internalNodes>
            0 -1 3 3.1390681397169828e-003</internalNodes>
          <leafValues>
            9.2771744728088379e-001 4.7473270446062088e-002</leafValues></_>
        <_>
          <internalNodes>
            0 -1 434 1.0656079277396202e-002</internalNodes>
          <leafValues>
            7.6504874229431152e-001 -2.8779116272926331e-001</leafValues></_>
        <_>
          <internalNodes>
            0 -1 260 4.1695102117955685e-003</internalNodes>
          <leafValues>
            7.1957981586456299e-001 -3.3347639441490173e-001</leafValues></_>
        <_>
          <internalNodes>
            0 -1 647 5.5599391460418701e-002</internalNodes>
          <leafValues>
            -3.7406042218208313e-001 6.6246163845062256e-001</leafValues></_></weakClassifiers></_>
    <!-- stage 7 -->
    <_>
      <maxWeakCount>16</maxWeakCount>
      <stageThreshold>4.1984155774116516e-002</stageThreshold>
      <weakClassifiers>
        <_>
          <internalNodes>
            0 -1 389 5.6548395832578535e-007</internalNodes>
          <leafValues>
            -3.8138139247894287e-001 9.1761183738708496e-001</leafValues></_>
        <_>
          <internalNodes>
            0 -1 405 4.5848779380321503e-002</internalNodes>
          <leafValues>
            1.3668189942836761e-001 7.8235405683517456e-001</leafValues></_>
        <_>
          <internalNodes>
            0 -1 2 2.9055208433419466e-003</internalNodes>
          <leafValues>
            3.9450681209564209e-001 -3.6770024895668030e-001</leafValues></_>
        <_>
          <internalNodes>
            0 -1 477 1.2704948894679546e-003</internalNodes>
          <leafValues>
            -7.7745503187179565e-001 2.1988683938980103e-001</leafValues></_>
        <_>
          <internalNodes>
            0 -1 602 8.8073117658495903e-003</internalNodes>
          <leafValues>
            3.7085393071174622e-001 -3.8482540845870972e-001</leafValues></_>
        <_>
          <internalNodes>
            0 -1 599 2.0963060669600964e-003</internalNodes>
          <leafValues>
            -7.4817532300949097e-001 1.2459523975849152e-001</leafValues></_>
        <_>
          <internalNodes>
            0 -1 3 9.2066009528934956e-004</internalNodes>
          <leafValues>
            3.3928987383842468e-001 -3.3339208364486694e-001</leafValues></_>
        <_>
          <internalNodes>
            0 -1 254 3.2068111002445221e-002</internalNodes>
          <leafValues>
            -3.0194321274757385e-001 4.0299767255783081e-001</leafValues></_>
        <_>
          <internalNodes>
            0 -1 468 1.8303008750081062e-002</internalNodes>
          <leafValues>
            2.3236078023910522e-001 -4.4420933723449707e-001</leafValues></_>
        <_>
          <internalNodes>
            0 -1 559 1.0940403444692492e-003</internalNodes>
          <leafValues>
            -7.7634984254837036e-001 1.4598560333251953e-001</leafValues></_>
        <_>
          <internalNodes>
            0 -1 60 3.9225481450557709e-003</internalNodes>
          <leafValues>
            2.8435465693473816e-001 -3.0927652120590210e-001</leafValues></_>
        <_>
          <internalNodes>
            0 -1 594 2.9571477323770523e-002</internalNodes>
          <leafValues>
            -1.7790544033050537e-001 4.4940909743309021e-001</leafValues></_>
        <_>
          <internalNodes>
            0 -1 455 7.1035459637641907e-002</internalNodes>
          <leafValues>
            8.5739515721797943e-002 -8.0991327762603760e-001</leafValues></_>
        <_>
          <internalNodes>
            0 -1 123 7.7292226254940033e-002</internalNodes>
          <leafValues>
            -1.1158405989408493e-001 6.9817942380905151e-001</leafValues></_>
        <_>
          <internalNodes>
            0 -1 280 4.7909743152558804e-003</internalNodes>
          <leafValues>
            3.1031247973442078e-001 -1.7994776368141174e-001</leafValues></_>
        <_>
          <internalNodes>
            0 -1 570 1.1725021898746490e-001</internalNodes>
          <leafValues>
            1.0560950636863708e-001 -6.5776908397674561e-001</leafValues></_></weakClassifiers></_>
    <!-- stage 8 -->
    <_>
      <maxWeakCount>10</maxWeakCount>
      <stageThreshold>-5.4724458605051041e-002</stageThreshold>
      <weakClassifiers>
        <_>
          <internalNodes>
            0 -1 655 5.6042827665805817e-002</internalNodes>
          <leafValues>
            9.2985117435455322e-001 -2.8000000119209290e-001</leafValues></_>
        <_>
          <internalNodes>
            0 -1 455 5.2735641598701477e-002</internalNodes>
          <leafValues>
            7.0385974645614624e-001 -4.5371001958847046e-001</leafValues></_>
        <_>
          <internalNodes>
            0 -1 544 2.7556652203202248e-002</internalNodes>
          <leafValues>
            -2.3335023224353790e-001 6.3157707452774048e-001</leafValues></_>
        <_>
          <internalNodes>
            0 -1 498 1.6280356794595718e-002</internalNodes>
          <leafValues>
            -5.0421005487442017e-001 3.6930349469184875e-001</leafValues></_>
        <_>
          <internalNodes>
            0 -1 420 4.1530191898345947e-002</internalNodes>
          <leafValues>
            -2.2904895246028900e-001 6.5960109233856201e-001</leafValues></_>
        <_>
          <internalNodes>
            0 -1 144 1.0988961905241013e-002</internalNodes>
          <leafValues>
            -3.8656067848205566e-001 3.5978668928146362e-001</leafValues></_>
        <_>
          <internalNodes>
            0 -1 527 3.1053543090820313e-002</internalNodes>
          <leafValues>
            -2.7981171011924744e-001 4.5739752054214478e-001</leafValues></_>
        <_>
          <internalNodes>
            0 -1 422 3.6712482571601868e-002</internalNodes>
          <leafValues>
            1.5413248538970947e-001 -7.3990190029144287e-001</leafValues></_>
        <_>
          <internalNodes>
            0 -1 23 3.1024222262203693e-003</internalNodes>
          <leafValues>
            2.8177034854888916e-001 -3.7659370899200439e-001</leafValues></_>
        <_>
          <internalNodes>
            0 -1 595 2.8289884328842163e-002</internalNodes>
          <leafValues>
            -2.8614556789398193e-001 4.1173520684242249e-001</leafValues></_></weakClassifiers></_>
    <!-- stage 9 -->
    <_>
      <maxWeakCount>36</maxWeakCount>
      <stageThreshold>-2.1154558658599854e-001</stageThreshold>
      <weakClassifiers>
        <_>
          <internalNodes>
            0 -1 3 7.5663090683519840e-004</internalNodes>
          <leafValues>
            9.5983022451400757e-001 7.4789917469024658e-001</leafValues></_>
        <_>
          <internalNodes>
            0 -1 3 7.5663090683519840e-004</internalNodes>
          <leafValues>
            7.5475740432739258e-001 2.1677652001380920e-001</leafValues></_>
        <_>
          <internalNodes>
            0 -1 253 2.3311899974942207e-002</internalNodes>
          <leafValues>
            -1.5956638753414154e-001 5.0699096918106079e-001</leafValues></_>
        <_>
          <internalNodes>
            0 -1 84 1.7098027747124434e-003</internalNodes>
          <leafValues>
            4.3755277991294861e-001 -2.5467386841773987e-001</leafValues></_>
        <_>
          <internalNodes>
            0 -1 46 2.8947069949936122e-005</internalNodes>
          <leafValues>
            -8.8324224948883057e-001 6.3756331801414490e-002</leafValues></_>
        <_>
          <internalNodes>
            0 -1 259 2.3081633262336254e-003</internalNodes>
          <leafValues>
            3.5649359226226807e-001 -2.8868415951728821e-001</leafValues></_>
        <_>
          <internalNodes>
            0 -1 7 5.2584890276193619e-002</internalNodes>
          <leafValues>
            -1.4593397080898285e-001 5.7572281360626221e-001</leafValues></_>
        <_>
          <internalNodes>
            0 -1 476 5.8328896760940552e-002</internalNodes>
          <leafValues>
            -2.4675102531909943e-001 3.1668531894683838e-001</leafValues></_>
        <_>
          <internalNodes>
            0 -1 351 6.2055375427007675e-002</internalNodes>
          <leafValues>
            -1.3991203904151917e-001 4.7294622659683228e-001</leafValues></_>
        <_>
          <internalNodes>
            0 -1 400 2.5127651169896126e-002</internalNodes>
          <leafValues>
            -1.4391838014125824e-001 4.0463808178901672e-001</leafValues></_>
        <_>
          <internalNodes>
            0 -1 23 2.0942892879247665e-003</internalNodes>
          <leafValues>
            2.9105412960052490e-001 -2.6074957847595215e-001</leafValues></_>
        <_>
          <internalNodes>
            0 -1 480 5.0166821893071756e-005</internalNodes>
          <leafValues>
            -5.5494660139083862e-001 1.3539288938045502e-001</leafValues></_>
        <_>
          <internalNodes>
            0 -1 297 8.9233648031949997e-004</internalNodes>
          <leafValues>
            4.5519131422042847e-001 -1.4710026979446411e-001</leafValues></_>
        <_>
          <internalNodes>
            0 -1 112 3.8920392398722470e-005</internalNodes>
          <leafValues>
            -8.4069997072219849e-001 7.9357653856277466e-002</leafValues></_>
        <_>
          <internalNodes>
            0 -1 469 2.8196362778544426e-002</internalNodes>
          <leafValues>
            7.9605415463447571e-002 -4.9958208203315735e-001</leafValues></_>
        <_>
          <internalNodes>
            0 -1 557 2.7467785403132439e-003</internalNodes>
          <leafValues>
            -3.5843214392662048e-001 1.2680840492248535e-001</leafValues></_>
        <_>
          <internalNodes>
            0 -1 647 3.2096665352582932e-002</internalNodes>
          <leafValues>
            -3.6801850795745850e-001 1.4064949750900269e-001</leafValues></_>
        <_>
          <internalNodes>
            0 -1 43 6.1890250071883202e-004</internalNodes>
          <leafValues>
            3.3957427740097046e-001 -1.3643656671047211e-001</leafValues></_>
        <_>
          <internalNodes>
            0 -1 517 1.9349226728081703e-002</internalNodes>
          <leafValues>
            -2.2047139704227448e-001 2.3502607643604279e-001</leafValues></_>
        <_>
          <internalNodes>
            0 -1 256 6.1400912702083588e-002</internalNodes>
          <leafValues>
            -6.5285101532936096e-002 6.3818579912185669e-001</leafValues></_>
        <_>
          <internalNodes>
            0 -1 142 3.2116405665874481e-002</internalNodes>
          <leafValues>
            -1.3999879360198975e-001 2.9285538196563721e-001</leafValues></_>
        <_>
          <internalNodes>
            0 -1 280 1.1772954836487770e-002</internalNodes>
          <leafValues>
            2.0078358054161072e-001 -2.3631839454174042e-001</leafValues></_>
        <_>
          <internalNodes>
            0 -1 595 9.5134824514389038e-003</internalNodes>
          <leafValues>
            -3.8776147365570068e-001 1.1354825645685196e-001</leafValues></_>
        <_>
          <internalNodes>
            0 -1 528 2.7795307338237762e-002</internalNodes>
          <leafValues>
            -3.3724564313888550e-001 1.1139797419309616e-001</leafValues></_>
        <_>
          <internalNodes>
            0 -1 212 4.2834351188503206e-004</internalNodes>
          <leafValues>
            4.5600107312202454e-001 -8.7337858974933624e-002</leafValues></_>
        <_>
          <internalNodes>
            0 -1 564 1.2545809149742126e-003</internalNodes>
          <leafValues>
            -4.8140951991081238e-001 1.1105487495660782e-001</leafValues></_>
        <_>
          <internalNodes>
            0 -1 157 4.1073784232139587e-002</internalNodes>
          <leafValues>
            -1.0818786919116974e-001 3.9271351695060730e-001</leafValues></_>
        <_>
          <internalNodes>
            0 -1 3 2.6891895686276257e-004</internalNodes>
          <leafValues>
            3.1317251920700073e-001 -1.4458982646465302e-001</leafValues></_>
        <_>
          <internalNodes>
            0 -1 491 3.3185719512403011e-003</internalNodes>
          <leafValues>
            -2.6736012101173401e-001 1.2187249958515167e-001</leafValues></_>
        <_>
          <internalNodes>
            0 -1 634 1.8108740448951721e-002</internalNodes>
          <leafValues>
            1.7152175307273865e-001 -2.3622806370258331e-001</leafValues></_>
        <_>
          <internalNodes>
            0 -1 658 3.5143703222274780e-002</internalNodes>
          <leafValues>
            -2.3851308226585388e-001 1.2700650095939636e-001</leafValues></_>
        <_>
          <internalNodes>
            0 -1 83 3.3268870320171118e-003</internalNodes>
          <leafValues>
            2.5764003396034241e-001 -1.2009909749031067e-001</leafValues></_>
        <_>
          <internalNodes>
            0 -1 440 3.0519015126628801e-005</internalNodes>
          <leafValues>
            -6.3239938020706177e-001 5.3678091615438461e-002</leafValues></_>
        <_>
          <internalNodes>
            0 -1 355 8.3262001862749457e-004</internalNodes>
          <leafValues>
            3.6106663942337036e-001 -9.1679818928241730e-002</leafValues></_>
        <_>
          <internalNodes>
            0 -1 512 2.5599640794098377e-003</internalNodes>
          <leafValues>
            -3.1448170542716980e-001 1.2055414915084839e-001</leafValues></_>
        <_>
          <internalNodes>
            0 -1 50 1.4902372844517231e-002</internalNodes>
          <leafValues>
            1.2797653675079346e-001 -2.5387933850288391e-001</leafValues></_></weakClassifiers></_>
    <!-- stage 10 -->
    <_>
      <maxWeakCount>53</maxWeakCount>
      <stageThreshold>-1.8742139637470245e-001</stageThreshold>
      <weakClassifiers>
        <_>
          <internalNodes>
            0 -1 459 7.9882740974426270e-002</internalNodes>
          <leafValues>
            9.0067553520202637e-001 -5.3246754407882690e-001</leafValues></_>
        <_>
          <internalNodes>
            0 -1 2 4.2820061207748950e-004</internalNodes>
          <leafValues>
            7.3192715644836426e-001 1.5564371645450592e-001</leafValues></_>
        <_>
          <internalNodes>
            0 -1 48 4.1251600487157702e-004</internalNodes>
          <leafValues>
            5.7848989963531494e-001 -6.8141601979732513e-002</leafValues></_>
        <_>
          <internalNodes>
            0 -1 478 1.1441705748438835e-002</internalNodes>
          <leafValues>
            -3.8395336270332336e-001 2.2746814787387848e-001</leafValues></_>
        <_>
          <internalNodes>
            0 -1 353 9.5069507369771600e-004</internalNodes>
          <leafValues>
            3.8574564456939697e-001 -1.7941804230213165e-001</leafValues></_>
        <_>
          <internalNodes>
            0 -1 619 3.8518579676747322e-003</internalNodes>
          <leafValues>
            -7.1083211898803711e-001 7.2887361049652100e-002</leafValues></_>
        <_>
          <internalNodes>
            0 -1 259 3.8145168218761683e-004</internalNodes>
          <leafValues>
            3.7173879146575928e-001 -2.0306919515132904e-001</leafValues></_>
        <_>
          <internalNodes>
            0 -1 67 3.8998663512757048e-005</internalNodes>
          <leafValues>
            -8.5188180208206177e-001 8.4879770874977112e-002</leafValues></_>
        <_>
          <internalNodes>
            0 -1 84 6.9873384200036526e-004</internalNodes>
          <leafValues>
            3.5697454214096069e-001 -1.9428889453411102e-001</leafValues></_>
        <_>
          <internalNodes>
            0 -1 10 1.7611525952816010e-002</internalNodes>
          <leafValues>
            -2.9383480548858643e-001 2.2282065451145172e-001</leafValues></_>
        <_>
          <internalNodes>
            0 -1 23 2.0315994042903185e-003</internalNodes>
          <leafValues>
            2.4032066762447357e-001 -2.5647026300430298e-001</leafValues></_>
        <_>
          <internalNodes>
            0 -1 613 4.3864790350198746e-003</internalNodes>
          <leafValues>
            -6.2973648309707642e-001 1.1407095193862915e-001</leafValues></_>
        <_>
          <internalNodes>
            0 -1 472 2.7059998363256454e-002</internalNodes>
          <leafValues>
            -2.8142175078392029e-001 2.2699324786663055e-001</leafValues></_>
        <_>
          <internalNodes>
            0 -1 489 1.2276876717805862e-001</internalNodes>
          <leafValues>
            8.3419613540172577e-002 -6.2859314680099487e-001</leafValues></_>
        <_>
          <internalNodes>
            0 -1 319 8.7710923980921507e-004</internalNodes>
          <leafValues>
            3.8169947266578674e-001 -1.2345585972070694e-001</leafValues></_>
        <_>
          <internalNodes>
            0 -1 483 1.4948546886444092e-001</internalNodes>
          <leafValues>
            5.5783942341804504e-002 -7.7449041604995728e-001</leafValues></_>
        <_>
          <internalNodes>
            0 -1 424 3.7601146847009659e-002</internalNodes>
          <leafValues>
            -2.7977007627487183e-001 1.3924062252044678e-001</leafValues></_>
        <_>
          <internalNodes>
            0 -1 3 5.0820794422179461e-004</internalNodes>
          <leafValues>
            2.2804236412048340e-001 -1.9401423633098602e-001</leafValues></_>
        <_>
          <internalNodes>
            0 -1 158 6.5630796598270535e-005</internalNodes>
          <leafValues>
            -8.0887222290039063e-001 5.7477697730064392e-002</leafValues></_>
        <_>
          <internalNodes>
            0 -1 426 3.5544738173484802e-002</internalNodes>
          <leafValues>
            -1.6581128537654877e-001 2.6373100280761719e-001</leafValues></_>
        <_>
          <internalNodes>
            0 -1 89 5.0319690490141511e-004</internalNodes>
          <leafValues>
            3.8363492488861084e-001 -8.8923342525959015e-002</leafValues></_>
        <_>
          <internalNodes>
            0 -1 418 8.7316110730171204e-002</internalNodes>
          <leafValues>
            6.7151695489883423e-002 -6.5369784832000732e-001</leafValues></_>
        <_>
          <internalNodes>
            0 -1 524 1.9379518926143646e-002</internalNodes>
          <leafValues>
            -1.5435476601123810e-001 2.3182885348796844e-001</leafValues></_>
        <_>
          <internalNodes>
            0 -1 43 2.1397159434854984e-003</internalNodes>
          <leafValues>
            2.4604657292366028e-001 -1.4000153541564941e-001</leafValues></_>
        <_>
          <internalNodes>
            0 -1 428 8.3962542703375220e-005</internalNodes>
          <leafValues>
            -6.2769675254821777e-001 6.6592447459697723e-002</leafValues></_>
        <_>
          <internalNodes>
            0 -1 622 3.7674844264984131e-002</internalNodes>
          <leafValues>
            4.9242656677961349e-002 -5.5413550138473511e-001</leafValues></_>
        <_>
          <internalNodes>
            0 -1 11 1.2357986997812986e-003</internalNodes>
          <leafValues>
            2.9466599225997925e-001 -1.2010841071605682e-001</leafValues></_>
        <_>
          <internalNodes>
            0 -1 479 9.0464140521362424e-004</internalNodes>
          <leafValues>
            -4.4898447394371033e-001 9.5282077789306641e-002</leafValues></_>
        <_>
          <internalNodes>
            0 -1 260 4.3242212268523872e-004</internalNodes>
          <leafValues>
            2.8271573781967163e-001 -1.1747050285339355e-001</leafValues></_>
        <_>
          <internalNodes>
            0 -1 485 5.0580634706420824e-005</internalNodes>
          <leafValues>
            -5.4856336116790771e-001 6.0234270989894867e-002</leafValues></_>
        <_>
          <internalNodes>
            0 -1 154 4.5598065480589867e-004</internalNodes>
          <leafValues>
            4.1558042168617249e-001 -1.0310494154691696e-001</leafValues></_>
        <_>
          <internalNodes>
            0 -1 469 4.2156070470809937e-002</internalNodes>
          <leafValues>
            5.2514418959617615e-002 -5.8796852827072144e-001</leafValues></_>
        <_>
          <internalNodes>
            0 -1 519 9.9229896441102028e-003</internalNodes>
          <leafValues>
            -1.8815183639526367e-001 1.5438131988048553e-001</leafValues></_>
        <_>
          <internalNodes>
            0 -1 291 3.6347639979794621e-004</internalNodes>
          <leafValues>
            4.3716555833816528e-001 -6.8612225353717804e-002</leafValues></_>
        <_>
          <internalNodes>
            0 -1 31 3.1973294913768768e-002</internalNodes>
          <leafValues>
            -1.4250837266445160e-001 2.5675401091575623e-001</leafValues></_>
        <_>
          <internalNodes>
            0 -1 356 1.1501121334731579e-003</internalNodes>
          <leafValues>
            -6.5171265602111816e-001 4.2129583656787872e-002</leafValues></_>
        <_>
          <internalNodes>
            0 -1 254 4.6580221503973007e-002</internalNodes>
          <leafValues>
            -1.0184131562709808e-001 2.7447178959846497e-001</leafValues></_>
        <_>
          <internalNodes>
            0 -1 1 4.6583544462919235e-004</internalNodes>
          <leafValues>
            2.5366216897964478e-001 -1.0991775244474411e-001</leafValues></_>
        <_>
          <internalNodes>
            0 -1 526 1.4600242720916867e-003</internalNodes>
          <leafValues>
            -2.9708865284919739e-001 8.7300986051559448e-002</leafValues></_>
        <_>
          <internalNodes>
            0 -1 70 3.5525235580280423e-004</internalNodes>
          <leafValues>
            2.8685158491134644e-001 -1.0513181239366531e-001</leafValues></_>
        <_>
          <internalNodes>
            0 -1 151 2.4519862563465722e-005</internalNodes>
          <leafValues>
            -7.9658377170562744e-001 3.6894060671329498e-002</leafValues></_>
        <_>
          <internalNodes>
            0 -1 380 6.0081332921981812e-002</internalNodes>
          <leafValues>
            -1.5579119324684143e-001 1.7049415409564972e-001</leafValues></_>
        <_>
          <internalNodes>
            0 -1 547 1.8957072868943214e-002</internalNodes>
          <leafValues>
            -2.2089381515979767e-001 1.1462499201297760e-001</leafValues></_>
        <_>
          <internalNodes>
            0 -1 280 3.7632705643773079e-003</internalNodes>
          <leafValues>
            2.2839076817035675e-001 -1.1380261927843094e-001</leafValues></_>
        <_>
          <internalNodes>
            0 -1 654 1.0572308674454689e-003</internalNodes>
          <leafValues>
            -3.3621782064437866e-001 7.7006198465824127e-002</leafValues></_>
        <_>
          <internalNodes>
            0 -1 103 5.7118071708828211e-004</internalNodes>
          <leafValues>
            3.6319074034690857e-001 -7.3772072792053223e-002</leafValues></_>
        <_>
          <internalNodes>
            0 -1 96 6.0121215879917145e-002</internalNodes>
          <leafValues>
            -7.8406631946563721e-002 3.1815099716186523e-001</leafValues></_>
        <_>
          <internalNodes>
            0 -1 425 1.2004863237962127e-003</internalNodes>
          <leafValues>
            -3.5255008935928345e-001 7.8185081481933594e-002</leafValues></_>
        <_>
          <internalNodes>
            0 -1 471 4.6345304697751999e-002</internalNodes>
          <leafValues>
            -1.6270247101783752e-001 1.5727640688419342e-001</leafValues></_>
        <_>
          <internalNodes>
            0 -1 569 4.2259525507688522e-002</internalNodes>
          <leafValues>
            -5.8942664414644241e-002 4.4995588064193726e-001</leafValues></_>
        <_>
          <internalNodes>
            0 -1 7 3.8757555186748505e-002</internalNodes>
          <leafValues>
            -9.3688584864139557e-002 2.7553722262382507e-001</leafValues></_>
        <_>
          <internalNodes>
            0 -1 256 5.5841566063463688e-004</internalNodes>
          <leafValues>
            3.3961510658264160e-001 -7.2205476462841034e-002</leafValues></_>
        <_>
          <internalNodes>
            0 -1 250 1.4055829960852861e-003</internalNodes>
          <leafValues>
            -6.4964020252227783e-001 4.0393713861703873e-002</leafValues></_></weakClassifiers></_>
    <!-- stage 11 -->
    <_>
      <maxWeakCount>61</maxWeakCount>
      <stageThreshold>-1.9803288578987122e-001</stageThreshold>
      <weakClassifiers>
        <_>
          <internalNodes>
            0 -1 2 2.6106964796781540e-003</internalNodes>
          <leafValues>
            9.4147300720214844e-001 7.0506668090820313e-001</leafValues></_>
        <_>
          <internalNodes>
            0 -1 3 2.2302870638668537e-003</internalNodes>
          <leafValues>
            7.0576667785644531e-001 1.4761260151863098e-001</leafValues></_>
        <_>
          <internalNodes>
            0 -1 353 1.7094654031097889e-003</internalNodes>
          <leafValues>
            5.7936042547225952e-001 -1.6679066419601440e-001</leafValues></_>
        <_>
          <internalNodes>
            0 -1 100 8.0162513768300414e-004</internalNodes>
          <leafValues>
            4.8350349068641663e-001 -1.8052573502063751e-001</leafValues></_>
        <_>
          <internalNodes>
            0 -1 404 4.0416081901639700e-005</internalNodes>
          <leafValues>
            -8.0664682388305664e-001 4.7399289906024933e-002</leafValues></_>
        <_>
          <internalNodes>
            0 -1 259 1.6339432913810015e-003</internalNodes>
          <leafValues>
            3.1430056691169739e-001 -2.5061848759651184e-001</leafValues></_>
        <_>
          <internalNodes>
            0 -1 8 2.2275537252426147e-002</internalNodes>
          <leafValues>
            -2.1394675970077515e-001 3.0886965990066528e-001</leafValues></_>
        <_>
          <internalNodes>
            0 -1 34 2.5554923340678215e-003</internalNodes>
          <leafValues>
            3.0846920609474182e-001 -2.3509365320205688e-001</leafValues></_>
        <_>
          <internalNodes>
            0 -1 546 2.3225089535117149e-002</internalNodes>
          <leafValues>
            1.6037820279598236e-001 -3.8920179009437561e-001</leafValues></_>
        <_>
          <internalNodes>
            0 -1 574 1.7866265028715134e-002</internalNodes>
          <leafValues>
            -2.3788549005985260e-001 2.3551280796527863e-001</leafValues></_>
        <_>
          <internalNodes>
            0 -1 636 1.7047498840838671e-003</internalNodes>
          <leafValues>
            -7.1500682830810547e-001 6.0375764966011047e-002</leafValues></_>
        <_>
          <internalNodes>
            0 -1 74 6.8337062839418650e-004</internalNodes>
          <leafValues>
            4.7132903337478638e-001 -1.1493949592113495e-001</leafValues></_>
        <_>
          <internalNodes>
            0 -1 158 2.7498976123752072e-005</internalNodes>
          <leafValues>
            -7.8502029180526733e-001 5.0171378999948502e-002</leafValues></_>
        <_>
          <internalNodes>
            0 -1 23 8.0958707258105278e-004</internalNodes>
          <leafValues>
            2.5129252672195435e-001 -1.6658885776996613e-001</leafValues></_>
        <_>
          <internalNodes>
            0 -1 479 3.8640869315713644e-003</internalNodes>
          <leafValues>
            -4.0353599190711975e-001 1.2569089233875275e-001</leafValues></_>
        <_>
          <internalNodes>
            0 -1 254 4.1052769869565964e-002</internalNodes>
          <leafValues>
            -1.3433170318603516e-001 2.7230441570281982e-001</leafValues></_>
        <_>
          <internalNodes>
            0 -1 378 5.9685528278350830e-002</internalNodes>
          <leafValues>
            -9.8798915743827820e-002 3.8195013999938965e-001</leafValues></_>
        <_>
          <internalNodes>
            0 -1 584 4.2004558054031804e-005</internalNodes>
          <leafValues>
            -8.1191504001617432e-001 4.5891031622886658e-002</leafValues></_>
        <_>
          <internalNodes>
            0 -1 280 7.2911672759801149e-004</internalNodes>
          <leafValues>
            3.2256042957305908e-001 -1.0997550934553146e-001</leafValues></_>
        <_>
          <internalNodes>
            0 -1 219 1.8247564136981964e-001</internalNodes>
          <leafValues>
            6.1093315482139587e-002 -5.7894110679626465e-001</leafValues></_>
        <_>
          <internalNodes>
            0 -1 377 4.0122196078300476e-002</internalNodes>
          <leafValues>
            -2.1085862815380096e-001 1.6313323378562927e-001</leafValues></_>
        <_>
          <internalNodes>
            0 -1 257 1.5249384939670563e-001</internalNodes>
          <leafValues>
            4.2344339191913605e-002 -6.6937494277954102e-001</leafValues></_>
        <_>
          <internalNodes>
            0 -1 55 5.8150332188233733e-004</internalNodes>
          <leafValues>
            2.9702231287956238e-001 -1.1569217592477798e-001</leafValues></_>
        <_>
          <internalNodes>
            0 -1 440 3.0519015126628801e-005</internalNodes>
          <leafValues>
            -5.8797842264175415e-001 5.4400399327278137e-002</leafValues></_>
        <_>
          <internalNodes>
            0 -1 14 7.1354216197505593e-004</internalNodes>
          <leafValues>
            3.3892291784286499e-001 -1.4292994141578674e-001</leafValues></_>
        <_>
          <internalNodes>
            0 -1 265 3.2668422907590866e-002</internalNodes>
          <leafValues>
            -1.0681688785552979e-001 3.1108027696609497e-001</leafValues></_>
        <_>
          <internalNodes>
            0 -1 123 5.2759837359189987e-002</internalNodes>
          <leafValues>
            -9.7882956266403198e-002 2.8242400288581848e-001</leafValues></_>
        <_>
          <internalNodes>
            0 -1 128 3.4470900893211365e-002</internalNodes>
          <leafValues>
            -1.8146495521068573e-001 1.4629937708377838e-001</leafValues></_>
        <_>
          <internalNodes>
            0 -1 292 6.7885890603065491e-002</internalNodes>
          <leafValues>
            -6.2001593410968781e-002 3.9503109455108643e-001</leafValues></_>
        <_>
          <internalNodes>
            0 -1 399 1.2964223511517048e-002</internalNodes>
          <leafValues>
            -2.4433948099613190e-001 9.9566042423248291e-002</leafValues></_>
        <_>
          <internalNodes>
            0 -1 291 3.6634525167755783e-004</internalNodes>
          <leafValues>
            4.2877283692359924e-001 -6.5935879945755005e-002</leafValues></_>
        <_>
          <internalNodes>
            0 -1 595 1.4547941973432899e-003</internalNodes>
          <leafValues>
            -5.5951070785522461e-001 5.0416599959135056e-002</leafValues></_>
        <_>
          <internalNodes>
            0 -1 275 3.2529234886169434e-002</internalNodes>
          <leafValues>
            -1.7871256172657013e-001 1.4584419131278992e-001</leafValues></_>
        <_>
          <internalNodes>
            0 -1 523 7.7322021126747131e-002</internalNodes>
          <leafValues>
            3.6520324647426605e-002 -6.0414493083953857e-001</leafValues></_>
        <_>
          <internalNodes>
            0 -1 3 2.8064771322533488e-004</internalNodes>
          <leafValues>
            2.1587018668651581e-001 -1.3620874285697937e-001</leafValues></_>
        <_>
          <internalNodes>
            0 -1 501 3.0879260972142220e-002</internalNodes>
          <leafValues>
            -9.2443771660327911e-002 3.2778811454772949e-001</leafValues></_>
        <_>
          <internalNodes>
            0 -1 403 3.7152923643589020e-002</internalNodes>
          <leafValues>
            5.1480300724506378e-002 -4.7824138402938843e-001</leafValues></_>
        <_>
          <internalNodes>
            0 -1 146 4.7280516475439072e-002</internalNodes>
          <leafValues>
            -5.9481192380189896e-002 4.2692464590072632e-001</leafValues></_>
        <_>
          <internalNodes>
            0 -1 583 6.0647487640380859e-002</internalNodes>
          <leafValues>
            -2.9437694698572159e-002 6.7923897504806519e-001</leafValues></_>
        <_>
          <internalNodes>
            0 -1 539 1.7010392621159554e-003</internalNodes>
          <leafValues>
            -3.1916150450706482e-001 7.5231522321701050e-002</leafValues></_>
        <_>
          <internalNodes>
            0 -1 125 4.2018718086183071e-003</internalNodes>
          <leafValues>
            2.6123926043510437e-001 -1.1531071364879608e-001</leafValues></_>
        <_>
          <internalNodes>
            0 -1 208 7.1283767465502024e-004</internalNodes>
          <leafValues>
            3.5370975732803345e-001 -6.9729126989841461e-002</leafValues></_>
        <_>
          <internalNodes>
            0 -1 189 3.2508087315363809e-005</internalNodes>
          <leafValues>
            -8.6299133300781250e-001 3.6065418273210526e-002</leafValues></_>
        <_>
          <internalNodes>
            0 -1 399 3.2442260533571243e-002</internalNodes>
          <leafValues>
            -1.2774537503719330e-001 1.8295450508594513e-001</leafValues></_>
        <_>
          <internalNodes>
            0 -1 358 8.2017391920089722e-002</internalNodes>
          <leafValues>
            3.4996710717678070e-002 -7.1363312005996704e-001</leafValues></_>
        <_>
          <internalNodes>
            0 -1 23 8.9917993173003197e-003</internalNodes>
          <leafValues>
            1.1694477498531342e-001 -1.9761519134044647e-001</leafValues></_>
        <_>
          <internalNodes>
            0 -1 137 3.4562997519969940e-002</internalNodes>
          <leafValues>
            -5.9161815792322159e-002 4.5230206847190857e-001</leafValues></_>
        <_>
          <internalNodes>
            0 -1 563 1.2633977457880974e-003</internalNodes>
          <leafValues>
            -3.5772779583930969e-001 6.5355166792869568e-002</leafValues></_>
        <_>
          <internalNodes>
            0 -1 89 6.3660647720098495e-004</internalNodes>
          <leafValues>
            4.0222600102424622e-001 -7.1802586317062378e-002</leafValues></_>
        <_>
          <internalNodes>
            0 -1 469 1.9111908972263336e-002</internalNodes>
          <leafValues>
            8.9203149080276489e-002 -2.5567179918289185e-001</leafValues></_>
        <_>
          <internalNodes>
            0 -1 340 2.4145213887095451e-002</internalNodes>
          <leafValues>
            -2.6813286542892456e-001 8.0925501883029938e-002</leafValues></_>
        <_>
          <internalNodes>
            0 -1 443 3.7895480636507273e-003</internalNodes>
          <leafValues>
            -3.0258029699325562e-001 7.9878002405166626e-002</leafValues></_>
        <_>
          <internalNodes>
            0 -1 319 9.7716262098401785e-004</internalNodes>
          <leafValues>
            2.9904675483703613e-001 -8.0152586102485657e-002</leafValues></_>
        <_>
          <internalNodes>
            0 -1 470 8.6258514784276485e-004</internalNodes>
          <leafValues>
            -4.9238759279251099e-001 3.9068255573511124e-002</leafValues></_>
        <_>
          <internalNodes>
            0 -1 64 1.9868602976202965e-003</internalNodes>
          <leafValues>
            2.7448511123657227e-001 -9.8069302737712860e-002</leafValues></_>
        <_>
          <internalNodes>
            0 -1 554 7.3786010034382343e-004</internalNodes>
          <leafValues>
            -3.7742668390274048e-001 5.9659786522388458e-002</leafValues></_>
        <_>
          <internalNodes>
            0 -1 114 3.7862168392166495e-004</internalNodes>
          <leafValues>
            4.6713033318519592e-001 -5.0466004759073257e-002</leafValues></_>
        <_>
          <internalNodes>
            0 -1 271 1.8892491236329079e-002</internalNodes>
          <leafValues>
            1.4001338183879852e-001 -1.5408594906330109e-001</leafValues></_>
        <_>
          <internalNodes>
            0 -1 557 9.8243448883295059e-004</internalNodes>
          <leafValues>
            -3.8516351580619812e-001 5.2221659570932388e-002</leafValues></_>
        <_>
          <internalNodes>
            0 -1 522 5.3415648639202118e-002</internalNodes>
          <leafValues>
            -6.4106613397598267e-002 3.2578417658805847e-001</leafValues></_>
        <_>
          <internalNodes>
            0 -1 485 1.9096527248620987e-002</internalNodes>
          <leafValues>
            -1.3080553710460663e-001 1.6307799518108368e-001</leafValues></_></weakClassifiers></_>
    <!-- stage 12 -->
    <_>
      <maxWeakCount>66</maxWeakCount>
      <stageThreshold>-1.2393859028816223e-001</stageThreshold>
      <weakClassifiers>
        <_>
          <internalNodes>
            0 -1 424 1.9152550521539524e-005</internalNodes>
          <leafValues>
            -1.2962962687015533e-001 9.0072423219680786e-001</leafValues></_>
        <_>
          <internalNodes>
            0 -1 77 2.9839080525562167e-004</internalNodes>
          <leafValues>
            8.6025065183639526e-001 3.4618142247200012e-001</leafValues></_>
        <_>
          <internalNodes>
            0 -1 3 2.1795058273710310e-004</internalNodes>
          <leafValues>
            3.9239326119422913e-001 -1.9703322649002075e-001</leafValues></_>
        <_>
          <internalNodes>
            0 -1 622 1.7830334603786469e-002</internalNodes>
          <leafValues>
            1.8461550772190094e-001 -4.2110815644264221e-001</leafValues></_>
        <_>
          <internalNodes>
            0 -1 259 4.6892551472410560e-004</internalNodes>
          <leafValues>
            3.4609520435333252e-001 -2.1562972664833069e-001</leafValues></_>
        <_>
          <internalNodes>
            0 -1 574 5.8282716199755669e-003</internalNodes>
          <leafValues>
            -4.5687410235404968e-001 1.3805085420608521e-001</leafValues></_>
        <_>
          <internalNodes>
            0 -1 42 6.3318721950054169e-002</internalNodes>
          <leafValues>
            -1.5007704496383667e-001 4.8871707916259766e-001</leafValues></_>
        <_>
          <internalNodes>
            0 -1 472 4.6083420515060425e-002</internalNodes>
          <leafValues>
            -1.7110684514045715e-001 3.6898437142372131e-001</leafValues></_>
        <_>
          <internalNodes>
            0 -1 253 1.7041465267539024e-002</internalNodes>
          <leafValues>
            -2.3356774449348450e-001 2.3955929279327393e-001</leafValues></_>
        <_>
          <internalNodes>
            0 -1 71 1.0306583717465401e-003</internalNodes>
          <leafValues>
            2.9729720950126648e-001 -1.7247241735458374e-001</leafValues></_>
        <_>
          <internalNodes>
            0 -1 494 1.2165112420916557e-002</internalNodes>
          <leafValues>
            -3.7536793947219849e-001 1.3910897076129913e-001</leafValues></_>
        <_>
          <internalNodes>
            0 -1 280 1.5207133255898952e-003</internalNodes>
          <leafValues>
            3.1214743852615356e-001 -1.4139902591705322e-001</leafValues></_>
        <_>
          <internalNodes>
            0 -1 595 1.6110192518681288e-003</internalNodes>
          <leafValues>
            -6.2444645166397095e-001 6.6033594310283661e-002</leafValues></_>
        <_>
          <internalNodes>
            0 -1 23 1.7772503197193146e-002</internalNodes>
          <leafValues>
            9.0756818652153015e-002 -4.2911317944526672e-001</leafValues></_>
        <_>
          <internalNodes>
            0 -1 478 2.5558846071362495e-002</internalNodes>
          <leafValues>
            -1.6415701806545258e-001 2.5388187170028687e-001</leafValues></_>
        <_>
          <internalNodes>
            0 -1 606 2.2489745169878006e-002</internalNodes>
          <leafValues>
            -4.2642062902450562e-001 8.1606440246105194e-002</leafValues></_>
        <_>
          <internalNodes>
            0 -1 336 2.6288197841495275e-004</internalNodes>
          <leafValues>
            3.7101572751998901e-001 -9.2715680599212646e-002</leafValues></_>
        <_>
          <internalNodes>
            0 -1 576 1.0511550307273865e-001</internalNodes>
          <leafValues>
            7.6893873512744904e-002 -4.2829403281211853e-001</leafValues></_>
        <_>
          <internalNodes>
            0 -1 24 7.9115806147456169e-004</internalNodes>
          <leafValues>
            1.6426640748977661e-001 -1.7125754058361053e-001</leafValues></_>
        <_>
          <internalNodes>
            0 -1 411 1.0307329939678311e-003</internalNodes>
          <leafValues>
            -4.3594640493392944e-001 8.0881699919700623e-002</leafValues></_>
        <_>
          <internalNodes>
            0 -1 50 3.1259196111932397e-004</internalNodes>
          <leafValues>
            2.7710008621215820e-001 -1.0990497469902039e-001</leafValues></_>
        <_>
          <internalNodes>
            0 -1 139 1.1698573827743530e-001</internalNodes>
          <leafValues>
            5.8096662163734436e-002 -5.5608004331588745e-001</leafValues></_>
        <_>
          <internalNodes>
            0 -1 435 4.1587340092519298e-005</internalNodes>
          <leafValues>
            -6.1362159252166748e-001 4.0608089417219162e-002</leafValues></_>
        <_>
          <internalNodes>
            0 -1 100 1.3047477696090937e-003</internalNodes>
          <leafValues>
            2.8920730948448181e-001 -1.5018908679485321e-001</leafValues></_>
        <_>
          <internalNodes>
            0 -1 10 1.7029136419296265e-002</internalNodes>
          <leafValues>
            -2.1321718394756317e-001 1.4907036721706390e-001</leafValues></_>
        <_>
          <internalNodes>
            0 -1 462 6.3283383846282959e-002</internalNodes>
          <leafValues>
            -7.2952039539813995e-002 3.9018043875694275e-001</leafValues></_>
        <_>
          <internalNodes>
            0 -1 652 2.5980216450989246e-003</internalNodes>
          <leafValues>
            -3.8049739599227905e-001 7.8995242714881897e-002</leafValues></_>
        <_>
          <internalNodes>
            0 -1 260 4.1647199541330338e-003</internalNodes>
          <leafValues>
            1.9004197418689728e-001 -1.7572622001171112e-001</leafValues></_>
        <_>
          <internalNodes>
            0 -1 649 5.9143461287021637e-002</internalNodes>
          <leafValues>
            3.5883709788322449e-002 -6.5383988618850708e-001</leafValues></_>
        <_>
          <internalNodes>
            0 -1 2 3.4081545891240239e-004</internalNodes>
          <leafValues>
            1.5553076565265656e-001 -1.5539027750492096e-001</leafValues></_>
        <_>
          <internalNodes>
            0 -1 440 3.0519015126628801e-005</internalNodes>
          <leafValues>
            -5.8869236707687378e-001 4.5663189142942429e-002</leafValues></_>
        <_>
          <internalNodes>
            0 -1 323 7.7593303285539150e-004</internalNodes>
          <leafValues>
            3.3849245309829712e-001 -8.2032710313796997e-002</leafValues></_>
        <_>
          <internalNodes>
            0 -1 473 1.7074341885745525e-003</internalNodes>
          <leafValues>
            -3.7303617596626282e-001 8.3189383149147034e-002</leafValues></_>
        <_>
          <internalNodes>
            0 -1 156 6.2660850584506989e-002</internalNodes>
          <leafValues>
            -3.8766879588365555e-002 6.7203873395919800e-001</leafValues></_>
        <_>
          <internalNodes>
            0 -1 444 9.8765507340431213e-002</internalNodes>
          <leafValues>
            4.3471183627843857e-002 -6.6779595613479614e-001</leafValues></_>
        <_>
          <internalNodes>
            0 -1 329 5.1627552602440119e-004</internalNodes>
          <leafValues>
            3.2277908921241760e-001 -8.5879877209663391e-002</leafValues></_>
        <_>
          <internalNodes>
            0 -1 599 1.9366112537682056e-003</internalNodes>
          <leafValues>
            -5.7810026407241821e-001 4.7563567757606506e-002</leafValues></_>
        <_>
          <internalNodes>
            0 -1 645 4.9526698887348175e-002</internalNodes>
          <leafValues>
            -5.6492704898118973e-002 4.7764751315116882e-001</leafValues></_>
        <_>
          <internalNodes>
            0 -1 408 1.4795740135014057e-003</internalNodes>
          <leafValues>
            -3.2493227720260620e-001 7.9417929053306580e-002</leafValues></_>
        <_>
          <internalNodes>
            0 -1 103 4.5519554987549782e-004</internalNodes>
          <leafValues>
            4.0032634139060974e-001 -7.6942279934883118e-002</leafValues></_>
        <_>
          <internalNodes>
            0 -1 271 6.8423670018091798e-004</internalNodes>
          <leafValues>
            3.5458582639694214e-001 -6.1624515801668167e-002</leafValues></_>
        <_>
          <internalNodes>
            0 -1 398 6.1404862208291888e-004</internalNodes>
          <leafValues>
            -5.1891410350799561e-001 6.2815718352794647e-002</leafValues></_>
        <_>
          <internalNodes>
            0 -1 319 2.5851018726825714e-003</internalNodes>
          <leafValues>
            2.4478967487812042e-001 -1.0425286740064621e-001</leafValues></_>
        <_>
          <internalNodes>
            0 -1 585 2.2020934522151947e-001</internalNodes>
          <leafValues>
            3.3929701894521713e-002 -7.6137006282806396e-001</leafValues></_>
        <_>
          <internalNodes>
            0 -1 236 2.2749551571905613e-003</internalNodes>
          <leafValues>
            -6.1869275569915771e-001 3.2791662961244583e-002</leafValues></_>
        <_>
          <internalNodes>
            0 -1 39 5.1150290528312325e-004</internalNodes>
          <leafValues>
            2.2808243334293365e-001 -1.0888747870922089e-001</leafValues></_>
        <_>
          <internalNodes>
            0 -1 158 2.7498976123752072e-005</internalNodes>
          <leafValues>
            -7.6511758565902710e-001 3.6784905940294266e-002</leafValues></_>
        <_>
          <internalNodes>
            0 -1 305 5.7464762357994914e-004</internalNodes>
          <leafValues>
            3.7137773633003235e-001 -6.8016417324542999e-002</leafValues></_>
        <_>
          <internalNodes>
            0 -1 628 1.5724235773086548e-001</internalNodes>
          <leafValues>
            4.2985755950212479e-002 -5.6454527378082275e-001</leafValues></_>
        <_>
          <internalNodes>
            0 -1 127 8.1441085785627365e-003</internalNodes>
          <leafValues>
            1.6802370548248291e-001 -1.4100487530231476e-001</leafValues></_>
        <_>
          <internalNodes>
            0 -1 150 3.2460170332342386e-003</internalNodes>
          <leafValues>
            -3.1579908728599548e-001 7.7801607549190521e-002</leafValues></_>
        <_>
          <internalNodes>
            0 -1 83 5.4862047545611858e-004</internalNodes>
          <leafValues>
            2.6801770925521851e-001 -7.1592546999454498e-002</leafValues></_>
        <_>
          <internalNodes>
            0 -1 507 3.1799473799765110e-003</internalNodes>
          <leafValues>
            -2.5132563710212708e-001 1.0219360888004303e-001</leafValues></_>
        <_>
          <internalNodes>
            0 -1 283 2.7173407375812531e-002</internalNodes>
          <leafValues>
            -1.7297558486461639e-001 1.1491604894399643e-001</leafValues></_>
        <_>
          <internalNodes>
            0 -1 145 5.2652768790721893e-002</internalNodes>
          <leafValues>
            1.1280188709497452e-001 -2.2559459507465363e-001</leafValues></_>
        <_>
          <internalNodes>
            0 -1 23 5.9592153411358595e-004</internalNodes>
          <leafValues>
            2.1037890017032623e-001 -1.1271655559539795e-001</leafValues></_>
        <_>
          <internalNodes>
            0 -1 173 3.5483386367559433e-002</internalNodes>
          <leafValues>
            -6.1327625066041946e-002 3.8339433073997498e-001</leafValues></_>
        <_>
          <internalNodes>
            0 -1 123 5.3962800651788712e-002</internalNodes>
          <leafValues>
            -8.2157380878925323e-002 2.4973383545875549e-001</leafValues></_>
        <_>
          <internalNodes>
            0 -1 105 2.7948105707764626e-004</internalNodes>
          <leafValues>
            3.5878825187683105e-001 -5.8665283024311066e-002</leafValues></_>
        <_>
          <internalNodes>
            0 -1 556 3.1283041462302208e-003</internalNodes>
          <leafValues>
            -2.8323331475257874e-001 8.7124004960060120e-002</leafValues></_>
        <_>
          <internalNodes>
            0 -1 280 2.9263090342283249e-002</internalNodes>
          <leafValues>
            8.0486893653869629e-002 -2.7664861083030701e-001</leafValues></_>
        <_>
          <internalNodes>
            0 -1 471 5.0771616399288177e-002</internalNodes>
          <leafValues>
            -1.5130576491355896e-001 1.4386908710002899e-001</leafValues></_>
        <_>
          <internalNodes>
            0 -1 469 6.4606569707393646e-002</internalNodes>
          <leafValues>
            2.6440093293786049e-002 -7.9503530263900757e-001</leafValues></_>
        <_>
          <internalNodes>
            0 -1 398 2.0942203700542450e-002</internalNodes>
          <leafValues>
            -1.5916994214057922e-001 1.4716252684593201e-001</leafValues></_>
        <_>
          <internalNodes>
            0 -1 32 6.4822070300579071e-002</internalNodes>
          <leafValues>
            -1.1092461645603180e-001 1.9660487771034241e-001</leafValues></_>
        <_>
          <internalNodes>
            0 -1 303 2.1984816994518042e-003</internalNodes>
          <leafValues>
            -5.7176905870437622e-001 3.8622532039880753e-002</leafValues></_></weakClassifiers></_>
    <!-- stage 13 -->
    <_>
      <maxWeakCount>69</maxWeakCount>
      <stageThreshold>-8.1520430743694305e-002</stageThreshold>
      <weakClassifiers>
        <_>
          <internalNodes>
            0 -1 0 9.8260730504989624e-002</internalNodes>
          <leafValues>
            8.9901441335678101e-001 -6.1538463830947876e-001</leafValues></_>
        <_>
          <internalNodes>
            0 -1 3 7.9475122038275003e-004</internalNodes>
          <leafValues>
            7.0685386657714844e-001 1.5591497719287872e-001</leafValues></_>
        <_>
          <internalNodes>
            0 -1 178 5.1450787577778101e-004</internalNodes>
          <leafValues>
            6.4451652765274048e-001 -8.0628059804439545e-002</leafValues></_>
        <_>
          <internalNodes>
            0 -1 259 5.6059268536046147e-004</internalNodes>
          <leafValues>
            3.8462969660758972e-001 -1.9361746311187744e-001</leafValues></_>
        <_>
          <internalNodes>
            0 -1 574 2.6307025924324989e-002</internalNodes>
          <leafValues>
            -2.3213979601860046e-001 2.9661995172500610e-001</leafValues></_>
        <_>
          <internalNodes>
            0 -1 230 1.8474152311682701e-002</internalNodes>
          <leafValues>
            1.7553241550922394e-001 -3.4675157070159912e-001</leafValues></_>
        <_>
          <internalNodes>
            0 -1 398 2.0926219876855612e-003</internalNodes>
          <leafValues>
            -5.8508384227752686e-001 6.6606365144252777e-002</leafValues></_>
        <_>
          <internalNodes>
            0 -1 71 6.6607864573597908e-004</internalNodes>
          <leafValues>
            3.5818424820899963e-001 -1.7012457549571991e-001</leafValues></_>
        <_>
          <internalNodes>
            0 -1 402 3.4491011319914833e-005</internalNodes>
          <leafValues>
            -7.6155722141265869e-001 6.1165191233158112e-002</leafValues></_>
        <_>
          <internalNodes>
            0 -1 414 1.5973558649420738e-002</internalNodes>
          <leafValues>
            9.5923528075218201e-002 -3.5570165514945984e-001</leafValues></_>
        <_>
          <internalNodes>
            0 -1 79 6.5534288296476007e-004</internalNodes>
          <leafValues>
            3.3059811592102051e-001 -1.2086515128612518e-001</leafValues></_>
        <_>
          <internalNodes>
            0 -1 570 9.9403083324432373e-002</internalNodes>
          <leafValues>
            8.3510056138038635e-002 -5.1945626735687256e-001</leafValues></_>
        <_>
          <internalNodes>
            0 -1 651 5.8384076692163944e-004</internalNodes>
          <leafValues>
            -7.1697586774826050e-001 4.0126383304595947e-002</leafValues></_>
        <_>
          <internalNodes>
            0 -1 325 8.8669604156166315e-004</internalNodes>
          <leafValues>
            3.5529789328575134e-001 -1.0658910125494003e-001</leafValues></_>
        <_>
          <internalNodes>
            0 -1 274 3.7552542984485626e-002</internalNodes>
          <leafValues>
            -1.1508580297231674e-001 2.8191629052162170e-001</leafValues></_>
        <_>
          <internalNodes>
            0 -1 1 5.1763374358415604e-004</internalNodes>
          <leafValues>
            2.1651662886142731e-001 -1.4728800952434540e-001</leafValues></_>
        <_>
          <internalNodes>
            0 -1 404 9.6320044249296188e-003</internalNodes>
          <leafValues>
            -3.1638401746749878e-001 1.2462030351161957e-001</leafValues></_>
        <_>
          <internalNodes>
            0 -1 10 3.8529157638549805e-002</internalNodes>
          <leafValues>
            -1.5087741613388062e-001 2.3670978844165802e-001</leafValues></_>
        <_>
          <internalNodes>
            0 -1 655 2.3344643414020538e-002</internalNodes>
          <leafValues>
            1.1463969200849533e-001 -3.3575394749641418e-001</leafValues></_>
        <_>
          <internalNodes>
            0 -1 273 5.3994706831872463e-004</internalNodes>
          <leafValues>
            3.9403599500656128e-001 -8.8143110275268555e-002</leafValues></_>
        <_>
          <internalNodes>
            0 -1 403 6.6689565777778625e-002</internalNodes>
          <leafValues>
            4.2675152420997620e-002 -9.2974710464477539e-001</leafValues></_>
        <_>
          <internalNodes>
            0 -1 557 4.1553401388227940e-005</internalNodes>
          <leafValues>
            -4.5892259478569031e-001 5.4914608597755432e-002</leafValues></_>
        <_>
          <internalNodes>
            0 -1 117 3.5020330687984824e-004</internalNodes>
          <leafValues>
            3.9647808670997620e-001 -1.0535170882940292e-001</leafValues></_>
        <_>
          <internalNodes>
            0 -1 177 2.6163765141973272e-005</internalNodes>
          <leafValues>
            -8.3905673027038574e-001 3.5299267619848251e-002</leafValues></_>
        <_>
          <internalNodes>
            0 -1 397 4.4670827686786652e-002</internalNodes>
          <leafValues>
            -8.5357844829559326e-002 3.7201684713363647e-001</leafValues></_>
        <_>
          <internalNodes>
            0 -1 258 1.3726949691772461e-002</internalNodes>
          <leafValues>
            1.7147992551326752e-001 -1.5907540917396545e-001</leafValues></_>
        <_>
          <internalNodes>
            0 -1 450 2.3710427922196686e-004</internalNodes>
          <leafValues>
            -6.1582976579666138e-001 4.6309586614370346e-002</leafValues></_>
        <_>
          <internalNodes>
            0 -1 56 6.8589451257139444e-004</internalNodes>
          <leafValues>
            3.0332171916961670e-001 -1.1037696897983551e-001</leafValues></_>
        <_>
          <internalNodes>
            0 -1 550 3.3696966711431742e-003</internalNodes>
          <leafValues>
            -3.2398974895477295e-001 8.8343165814876556e-002</leafValues></_>
        <_>
          <internalNodes>
            0 -1 124 6.4175143837928772e-002</internalNodes>
          <leafValues>
            -1.5103606879711151e-001 1.9090305268764496e-001</leafValues></_>
        <_>
          <internalNodes>
            0 -1 7 6.5800473093986511e-002</internalNodes>
          <leafValues>
            -7.8672051429748535e-002 4.1295397281646729e-001</leafValues></_>
        <_>
          <internalNodes>
            0 -1 392 7.6172038912773132e-002</internalNodes>
          <leafValues>
            3.0521484091877937e-002 -8.5720872879028320e-001</leafValues></_>
        <_>
          <internalNodes>
            0 -1 309 6.1775773763656616e-002</internalNodes>
          <leafValues>
            -4.3146565556526184e-002 7.3157316446304321e-001</leafValues></_>
        <_>
          <internalNodes>
            0 -1 455 8.0614119768142700e-002</internalNodes>
          <leafValues>
            3.8230512291193008e-002 -7.6500761508941650e-001</leafValues></_>
        <_>
          <internalNodes>
            0 -1 256 4.7928493469953537e-002</internalNodes>
          <leafValues>
            -6.9867193698883057e-002 4.0289294719696045e-001</leafValues></_>
        <_>
          <internalNodes>
            0 -1 591 3.7022333592176437e-002</internalNodes>
          <leafValues>
            -1.2230538576841354e-001 2.1930934488773346e-001</leafValues></_>
        <_>
          <internalNodes>
            0 -1 654 4.4351487304084003e-005</internalNodes>
          <leafValues>
            -3.9435184001922607e-001 6.5567687153816223e-002</leafValues></_>
        <_>
          <internalNodes>
            0 -1 278 3.1385256443172693e-004</internalNodes>
          <leafValues>
            2.6608991622924805e-001 -1.0870072990655899e-001</leafValues></_>
        <_>
          <internalNodes>
            0 -1 239 9.6114106476306915e-002</internalNodes>
          <leafValues>
            -5.0609484314918518e-002 5.4785490036010742e-001</leafValues></_>
        <_>
          <internalNodes>
            0 -1 465 5.9175744652748108e-002</internalNodes>
          <leafValues>
            -7.0958279073238373e-002 3.6979061365127563e-001</leafValues></_>
        <_>
          <internalNodes>
            0 -1 573 9.8197674378752708e-004</internalNodes>
          <leafValues>
            -3.8901093602180481e-001 8.1135369837284088e-002</leafValues></_>
        <_>
          <internalNodes>
            0 -1 2 2.8574408497661352e-004</internalNodes>
          <leafValues>
            1.8151369690895081e-001 -1.6781704127788544e-001</leafValues></_>
        <_>
          <internalNodes>
            0 -1 569 1.9587952643632889e-002</internalNodes>
          <leafValues>
            -1.6226787865161896e-001 2.4304723739624023e-001</leafValues></_>
        <_>
          <internalNodes>
            0 -1 606 4.4801160693168640e-002</internalNodes>
          <leafValues>
            -1.9058586657047272e-001 1.2516778707504272e-001</leafValues></_>
        <_>
          <internalNodes>
            0 -1 507 2.2838241420686245e-003</internalNodes>
          <leafValues>
            -2.4835959076881409e-001 9.1074511408805847e-002</leafValues></_>
        <_>
          <internalNodes>
            0 -1 198 3.6691548302769661e-004</internalNodes>
          <leafValues>
            3.3278807997703552e-001 -9.7034446895122528e-002</leafValues></_>
        <_>
          <internalNodes>
            0 -1 641 6.8834505975246429e-002</internalNodes>
          <leafValues>
            -5.4460473358631134e-002 4.0027576684951782e-001</leafValues></_>
        <_>
          <internalNodes>
            0 -1 135 3.3848948776721954e-002</internalNodes>
          <leafValues>
            -7.0393688976764679e-002 3.0949854850769043e-001</leafValues></_>
        <_>
          <internalNodes>
            0 -1 161 7.2011176962405443e-004</internalNodes>
          <leafValues>
            3.3951088786125183e-001 -5.5898737162351608e-002</leafValues></_>
        <_>
          <internalNodes>
            0 -1 519 3.6441807169467211e-003</internalNodes>
          <leafValues>
            -2.7312514185905457e-001 1.0414224863052368e-001</leafValues></_>
        <_>
          <internalNodes>
            0 -1 50 8.3651248132809997e-004</internalNodes>
          <leafValues>
            2.6071256399154663e-001 -1.1402041465044022e-001</leafValues></_>
        <_>
          <internalNodes>
            0 -1 428 4.0746608283370733e-004</internalNodes>
          <leafValues>
            -5.1616364717483521e-001 4.9575284123420715e-002</leafValues></_>
        <_>
          <internalNodes>
            0 -1 486 3.2135176006704569e-003</internalNodes>
          <leafValues>
            -4.0711721777915955e-001 4.8356186598539352e-002</leafValues></_>
        <_>
          <internalNodes>
            0 -1 62 9.8746595904231071e-004</internalNodes>
          <leafValues>
            3.7360218167304993e-001 -7.0749938488006592e-002</leafValues></_>
        <_>
          <internalNodes>
            0 -1 393 2.5291111320257187e-002</internalNodes>
          <leafValues>
            6.1300680041313171e-002 -3.4591898322105408e-001</leafValues></_>
        <_>
          <internalNodes>
            0 -1 624 3.6994366382714361e-005</internalNodes>
          <leafValues>
            -6.6774028539657593e-001 2.8587058186531067e-002</leafValues></_>
        <_>
          <internalNodes>
            0 -1 355 4.9794942606240511e-004</internalNodes>
          <leafValues>
            3.4518933296203613e-001 -8.0157585442066193e-002</leafValues></_>
        <_>
          <internalNodes>
            0 -1 250 3.1384127214550972e-003</internalNodes>
          <leafValues>
            -5.3542876243591309e-001 3.9068695157766342e-002</leafValues></_>
        <_>
          <internalNodes>
            0 -1 125 1.3681232230737805e-003</internalNodes>
          <leafValues>
            2.9948985576629639e-001 -9.0607389807701111e-002</leafValues></_>
        <_>
          <internalNodes>
            0 -1 463 3.1001965980976820e-003</internalNodes>
          <leafValues>
            -2.9564884305000305e-001 8.3803668618202209e-002</leafValues></_>
        <_>
          <internalNodes>
            0 -1 360 3.2245897455140948e-004</internalNodes>
          <leafValues>
            3.7997442483901978e-001 -5.0912257283926010e-002</leafValues></_>
        <_>
          <internalNodes>
            0 -1 432 7.4986606836318970e-002</internalNodes>
          <leafValues>
            4.1039250791072845e-002 -5.7191157341003418e-001</leafValues></_>
        <_>
          <internalNodes>
            0 -1 96 5.6894473731517792e-002</internalNodes>
          <leafValues>
            -7.7859424054622650e-002 2.4307921528816223e-001</leafValues></_>
        <_>
          <internalNodes>
            0 -1 448 2.0055531058460474e-003</internalNodes>
          <leafValues>
            -2.2736571729183197e-001 1.0107440501451492e-001</leafValues></_>
        <_>
          <internalNodes>
            0 -1 128 4.4463992118835449e-002</internalNodes>
          <leafValues>
            -1.3485069572925568e-001 1.4911429584026337e-001</leafValues></_>
        <_>
          <internalNodes>
            0 -1 69 1.4234408736228943e-003</internalNodes>
          <leafValues>
            2.3300798237323761e-001 -9.0120032429695129e-002</leafValues></_>
        <_>
          <internalNodes>
            0 -1 518 2.7594421058893204e-002</internalNodes>
          <leafValues>
            -8.1352859735488892e-002 2.5817382335662842e-001</leafValues></_>
        <_>
          <internalNodes>
            0 -1 265 8.4837317466735840e-002</internalNodes>
          <leafValues>
            -3.1211772933602333e-002 5.9147179126739502e-001</leafValues></_>
        <_>
          <internalNodes>
            0 -1 271 7.3240119963884354e-003</internalNodes>
          <leafValues>
            2.3334439098834991e-001 -8.4230937063694000e-002</leafValues></_></weakClassifiers></_>
    <!-- stage 14 -->
    <_>
      <maxWeakCount>84</maxWeakCount>
      <stageThreshold>-7.5063325464725494e-002</stageThreshold>
      <weakClassifiers>
        <_>
          <internalNodes>
            0 -1 3 2.8240790124982595e-003</internalNodes>
          <leafValues>
            9.3085563182830811e-001 7.5903612375259399e-001</leafValues></_>
        <_>
          <internalNodes>
            0 -1 299 2.9554095817729831e-004</internalNodes>
          <leafValues>
            8.5680103302001953e-001 3.4991279244422913e-001</leafValues></_>
        <_>
          <internalNodes>
            0 -1 367 7.0672563742846251e-004</internalNodes>
          <leafValues>
            5.1655942201614380e-001 -7.2375819087028503e-002</leafValues></_>
        <_>
          <internalNodes>
            0 -1 574 3.3724237233400345e-002</internalNodes>
          <leafValues>
            -1.6821084916591644e-001 3.4236544370651245e-001</leafValues></_>
        <_>
          <internalNodes>
            0 -1 23 9.3740341253578663e-004</internalNodes>
          <leafValues>
            2.3893937468528748e-001 -2.1206650137901306e-001</leafValues></_>
        <_>
          <internalNodes>
            0 -1 478 9.2679113149642944e-003</internalNodes>
          <leafValues>
            -4.1659313440322876e-001 1.6150213778018951e-001</leafValues></_>
        <_>
          <internalNodes>
            0 -1 259 1.5592208364978433e-003</internalNodes>
          <leafValues>
            2.2148729860782623e-001 -2.0182891190052032e-001</leafValues></_>
        <_>
          <internalNodes>
            0 -1 639 1.2185047380626202e-003</internalNodes>
          <leafValues>
            -6.3807475566864014e-001 7.3366276919841766e-002</leafValues></_>
        <_>
          <internalNodes>
            0 -1 80 2.1249591372907162e-003</internalNodes>
          <leafValues>
            2.6166924834251404e-001 -1.8155024945735931e-001</leafValues></_>
        <_>
          <internalNodes>
            0 -1 420 3.5824890801450238e-005</internalNodes>
          <leafValues>
            -7.0142209529876709e-001 5.2788048982620239e-002</leafValues></_>
        <_>
          <internalNodes>
            0 -1 3 4.4154672650620341e-004</internalNodes>
          <leafValues>
            1.9904266297817230e-001 -2.1048673987388611e-001</leafValues></_>
        <_>
          <internalNodes>
            0 -1 379 4.6928249299526215e-002</internalNodes>
          <leafValues>
            -2.3933398723602295e-001 1.9603520631790161e-001</leafValues></_>
        <_>
          <internalNodes>
            0 -1 136 2.7878306806087494e-002</internalNodes>
          <leafValues>
            -1.2100251764059067e-001 3.1149062514305115e-001</leafValues></_>
        <_>
          <internalNodes>
            0 -1 595 8.8880583643913269e-003</internalNodes>
          <leafValues>
            -3.8919332623481750e-001 1.0091774165630341e-001</leafValues></_>
        <_>
          <internalNodes>
            0 -1 599 4.9627449363470078e-002</internalNodes>
          <leafValues>
            -1.1805558204650879e-001 3.3211150765419006e-001</leafValues></_>
        <_>
          <internalNodes>
            0 -1 321 8.9270234107971191e-002</internalNodes>
          <leafValues>
            -4.5740019530057907e-002 8.3034491539001465e-001</leafValues></_>
        <_>
          <internalNodes>
            0 -1 60 3.6367960274219513e-004</internalNodes>
          <leafValues>
            3.1466031074523926e-001 -1.1198838800191879e-001</leafValues></_>
        <_>
          <internalNodes>
            0 -1 46 2.8947069949936122e-005</internalNodes>
          <leafValues>
            -7.5466978549957275e-001 4.4906161725521088e-002</leafValues></_>
        <_>
          <internalNodes>
            0 -1 8 2.9069395735859871e-002</internalNodes>
          <leafValues>
            -1.4711698889732361e-001 2.3915630578994751e-001</leafValues></_>
        <_>
          <internalNodes>
            0 -1 280 1.6906739911064506e-003</internalNodes>
          <leafValues>
            2.5066748261451721e-001 -1.1622357368469238e-001</leafValues></_>
        <_>
          <internalNodes>
            0 -1 145 8.5736960172653198e-002</internalNodes>
          <leafValues>
            8.3258099853992462e-002 -3.8250878453254700e-001</leafValues></_>
        <_>
          <internalNodes>
            0 -1 32 3.3371537923812866e-002</internalNodes>
          <leafValues>
            -2.2535064816474915e-001 1.5892437100410461e-001</leafValues></_>
        <_>
          <internalNodes>
            0 -1 564 4.4251773942960426e-005</internalNodes>
          <leafValues>
            -4.3937408924102783e-001 6.5890267491340637e-002</leafValues></_>
        <_>
          <internalNodes>
            0 -1 218 6.0408294666558504e-004</internalNodes>
          <leafValues>
            3.3233973383903503e-001 -8.6038425564765930e-002</leafValues></_>
        <_>
          <internalNodes>
            0 -1 469 3.2101698219776154e-002</internalNodes>
          <leafValues>
            5.1605496555566788e-002 -4.5815196633338928e-001</leafValues></_>
        <_>
          <internalNodes>
            0 -1 283 2.4433875456452370e-002</internalNodes>
          <leafValues>
            -2.0440636575222015e-001 1.1887090653181076e-001</leafValues></_>
        <_>
          <internalNodes>
            0 -1 256 5.7031352072954178e-002</internalNodes>
          <leafValues>
            -5.7539749890565872e-002 4.6451324224472046e-001</leafValues></_>
        <_>
          <internalNodes>
            0 -1 5 4.8031221376731992e-004</internalNodes>
          <leafValues>
            3.1501859426498413e-001 -7.4709624052047729e-002</leafValues></_>
        <_>
          <internalNodes>
            0 -1 584 5.1895147189497948e-003</internalNodes>
          <leafValues>
            -4.1697502136230469e-001 6.6523998975753784e-002</leafValues></_>
        <_>
          <internalNodes>
            0 -1 399 1.6060516238212585e-002</internalNodes>
          <leafValues>
            -2.4962507188320160e-001 1.1274481564760208e-001</leafValues></_>
        <_>
          <internalNodes>
            0 -1 29 8.6346734315156937e-004</internalNodes>
          <leafValues>
            4.8726880550384521e-001 -7.8920647501945496e-002</leafValues></_>
        <_>
          <internalNodes>
            0 -1 480 5.5139901814982295e-004</internalNodes>
          <leafValues>
            -3.9625167846679688e-001 6.8559765815734863e-002</leafValues></_>
        <_>
          <internalNodes>
            0 -1 349 6.8270117044448853e-002</internalNodes>
          <leafValues>
            -7.2575941681861877e-002 4.2462050914764404e-001</leafValues></_>
        <_>
          <internalNodes>
            0 -1 200 5.3839690983295441e-002</internalNodes>
          <leafValues>
            -8.1522375345230103e-002 3.5706824064254761e-001</leafValues></_>
        <_>
          <internalNodes>
            0 -1 56 4.9376476090401411e-004</internalNodes>
          <leafValues>
            2.8807216882705688e-001 -8.5023291409015656e-002</leafValues></_>
        <_>
          <internalNodes>
            0 -1 167 3.2907570130191743e-005</internalNodes>
          <leafValues>
            -8.4400206804275513e-001 2.7831396088004112e-002</leafValues></_>
        <_>
          <internalNodes>
            0 -1 411 1.4363938570022583e-001</internalNodes>
          <leafValues>
            1.9033316522836685e-002 -8.6979258060455322e-001</leafValues></_>
        <_>
          <internalNodes>
            0 -1 2 2.5016604922711849e-004</internalNodes>
          <leafValues>
            1.4597670733928680e-001 -1.5358704328536987e-001</leafValues></_>
        <_>
          <internalNodes>
            0 -1 446 3.5817978641716763e-005</internalNodes>
          <leafValues>
            -5.8347898721694946e-001 3.5303384065628052e-002</leafValues></_>
        <_>
          <internalNodes>
            0 -1 222 3.7889840314164758e-004</internalNodes>
          <leafValues>
            3.8965642452239990e-001 -6.6030584275722504e-002</leafValues></_>
        <_>
          <internalNodes>
            0 -1 560 1.6114592552185059e-001</internalNodes>
          <leafValues>
            4.9304891377687454e-002 -5.0189107656478882e-001</leafValues></_>
        <_>
          <internalNodes>
            0 -1 10 2.8633070542127825e-005</internalNodes>
          <leafValues>
            -5.6759279966354370e-001 3.9706930518150330e-002</leafValues></_>
        <_>
          <internalNodes>
            0 -1 654 2.2624667733907700e-002</internalNodes>
          <leafValues>
            8.2677677273750305e-002 -2.8039127588272095e-001</leafValues></_>
        <_>
          <internalNodes>
            0 -1 265 2.8289938927628100e-004</internalNodes>
          <leafValues>
            4.5414343476295471e-001 -5.2389226853847504e-002</leafValues></_>
        <_>
          <internalNodes>
            0 -1 608 2.3904986679553986e-002</internalNodes>
          <leafValues>
            -1.3434179127216339e-001 1.9446884095668793e-001</leafValues></_>
        <_>
          <internalNodes>
            0 -1 625 4.7297772020101547e-002</internalNodes>
          <leafValues>
            -1.6921547055244446e-001 1.2352868914604187e-001</leafValues></_>
        <_>
          <internalNodes>
            0 -1 525 1.4466305077075958e-001</internalNodes>
          <leafValues>
            4.3347127735614777e-002 -5.0227683782577515e-001</leafValues></_>
        <_>
          <internalNodes>
            0 -1 414 9.3774311244487762e-003</internalNodes>
          <leafValues>
            1.1997614055871964e-001 -1.7791137099266052e-001</leafValues></_>
        <_>
          <internalNodes>
            0 -1 479 7.1204605046659708e-004</internalNodes>
          <leafValues>
            -4.1513654589653015e-001 6.0208708047866821e-002</leafValues></_>
        <_>
          <internalNodes>
            0 -1 168 7.8611060976982117e-002</internalNodes>
          <leafValues>
            2.6343936100602150e-002 -6.6995745897293091e-001</leafValues></_>
        <_>
          <internalNodes>
            0 -1 256 2.5103901862166822e-004</internalNodes>
          <leafValues>
            3.5647809505462646e-001 -6.1749704182147980e-002</leafValues></_>
        <_>
          <internalNodes>
            0 -1 106 6.2091968953609467e-002</internalNodes>
          <leafValues>
            -7.2151258587837219e-002 3.0261895060539246e-001</leafValues></_>
        <_>
          <internalNodes>
            0 -1 89 7.9903512960299850e-004</internalNodes>
          <leafValues>
            3.0185648798942566e-001 -7.0565417408943176e-002</leafValues></_>
        <_>
          <internalNodes>
            0 -1 557 1.7978205578401685e-003</internalNodes>
          <leafValues>
            -3.3037278056144714e-001 7.7101036906242371e-002</leafValues></_>
        <_>
          <internalNodes>
            0 -1 109 7.8694312833249569e-004</internalNodes>
          <leafValues>
            2.9313048720359802e-001 -7.9799145460128784e-002</leafValues></_>
        <_>
          <internalNodes>
            0 -1 483 1.1539858579635620e-001</internalNodes>
          <leafValues>
            4.2716115713119507e-002 -5.1907193660736084e-001</leafValues></_>
        <_>
          <internalNodes>
            0 -1 424 6.0416143387556076e-002</internalNodes>
          <leafValues>
            -1.3607327640056610e-001 1.4777490496635437e-001</leafValues></_>
        <_>
          <internalNodes>
            0 -1 514 4.7343410551548004e-003</internalNodes>
          <leafValues>
            -2.4188083410263062e-001 7.2956055402755737e-002</leafValues></_>
        <_>
          <internalNodes>
            0 -1 21 3.2794894650578499e-003</internalNodes>
          <leafValues>
            1.4324100315570831e-001 -1.2800288200378418e-001</leafValues></_>
        <_>
          <internalNodes>
            0 -1 482 6.9538806565105915e-003</internalNodes>
          <leafValues>
            -2.5665313005447388e-001 7.6935768127441406e-002</leafValues></_>
        <_>
          <internalNodes>
            0 -1 190 3.7370336940512061e-004</internalNodes>
          <leafValues>
            3.0845227837562561e-001 -5.6045994162559509e-002</leafValues></_>
        <_>
          <internalNodes>
            0 -1 495 3.3114003017544746e-003</internalNodes>
          <leafValues>
            -3.0317240953445435e-001 6.3076518476009369e-002</leafValues></_>
        <_>
          <internalNodes>
            0 -1 306 4.8590253572911024e-004</internalNodes>
          <leafValues>
            3.1065994501113892e-001 -5.7674843817949295e-002</leafValues></_>
        <_>
          <internalNodes>
            0 -1 306 5.3594440221786499e-002</internalNodes>
          <leafValues>
            -4.4016502797603607e-002 4.3183079361915588e-001</leafValues></_>
        <_>
          <internalNodes>
            0 -1 287 2.2436412051320076e-002</internalNodes>
          <leafValues>
            -7.5693972408771515e-002 2.3686507344245911e-001</leafValues></_>
        <_>
          <internalNodes>
            0 -1 340 2.6119279209524393e-004</internalNodes>
          <leafValues>
            -8.7602460384368896e-001 2.1119030192494392e-002</leafValues></_>
        <_>
          <internalNodes>
            0 -1 312 6.7081758752465248e-003</internalNodes>
          <leafValues>
            1.4800983667373657e-001 -1.3711772859096527e-001</leafValues></_>
        <_>
          <internalNodes>
            0 -1 171 4.4798135757446289e-002</internalNodes>
          <leafValues>
            -4.4481478631496429e-002 4.1280198097229004e-001</leafValues></_>
        <_>
          <internalNodes>
            0 -1 504 7.3591396212577820e-003</internalNodes>
          <leafValues>
            -5.6079363822937012e-001 3.6286126822233200e-002</leafValues></_>
        <_>
          <internalNodes>
            0 -1 559 1.2426220346242189e-003</internalNodes>
          <leafValues>
            -5.9002107381820679e-001 2.7961468324065208e-002</leafValues></_>
        <_>
          <internalNodes>
            0 -1 13 3.5787900560535491e-004</internalNodes>
          <leafValues>
            2.0807090401649475e-001 -1.0553560405969620e-001</leafValues></_>
        <_>
          <internalNodes>
            0 -1 412 3.2017716875998303e-005</internalNodes>
          <leafValues>
            -3.3255735039710999e-001 7.3796458542346954e-002</leafValues></_>
        <_>
          <internalNodes>
            0 -1 259 1.5666706487536430e-002</internalNodes>
          <leafValues>
            1.0304644703865051e-001 -1.9181655347347260e-001</leafValues></_>
        <_>
          <internalNodes>
            0 -1 484 4.1099764406681061e-002</internalNodes>
          <leafValues>
            -6.1765596270561218e-002 3.1426945328712463e-001</leafValues></_>
        <_>
          <internalNodes>
            0 -1 255 3.0318846926093102e-002</internalNodes>
          <leafValues>
            -7.7303528785705566e-002 2.3162578046321869e-001</leafValues></_>
        <_>
          <internalNodes>
            0 -1 47 6.3195012509822845e-002</internalNodes>
          <leafValues>
            -6.3962057232856750e-002 2.7987131476402283e-001</leafValues></_>
        <_>
          <internalNodes>
            0 -1 77 6.8691298365592957e-002</internalNodes>
          <leafValues>
            -3.3295214176177979e-002 5.4724901914596558e-001</leafValues></_>
        <_>
          <internalNodes>
            0 -1 387 2.8224114328622818e-002</internalNodes>
          <leafValues>
            -6.8358570337295532e-002 2.3815929889678955e-001</leafValues></_>
        <_>
          <internalNodes>
            0 -1 27 3.9240136742591858e-002</internalNodes>
          <leafValues>
            -1.0443989187479019e-001 1.6299538314342499e-001</leafValues></_>
        <_>
          <internalNodes>
            0 -1 138 2.1173155982978642e-004</internalNodes>
          <leafValues>
            2.5670000910758972e-001 -7.0852324366569519e-002</leafValues></_>
        <_>
          <internalNodes>
            0 -1 201 6.4131123945116997e-003</internalNodes>
          <leafValues>
            -4.0849468111991882e-001 4.5816008001565933e-002</leafValues></_>
        <_>
          <internalNodes>
            0 -1 322 6.9447513669729233e-004</internalNodes>
          <leafValues>
            3.8319116830825806e-001 -5.0928734242916107e-002</leafValues></_>
        <_>
          <internalNodes>
            0 -1 506 1.8210016423836350e-003</internalNodes>
          <leafValues>
            -2.8155484795570374e-001 6.7936949431896210e-002</leafValues></_>
        <_>
          <internalNodes>
            0 -1 121 2.9400270432233810e-004</internalNodes>
          <leafValues>
            2.5565865635871887e-001 -6.2373779714107513e-002</leafValues></_></weakClassifiers></_>
    <!-- stage 15 -->
    <_>
      <maxWeakCount>96</maxWeakCount>
      <stageThreshold>-6.4532339572906494e-002</stageThreshold>
      <weakClassifiers>
        <_>
          <internalNodes>
            0 -1 3 2.5129267014563084e-003</internalNodes>
          <leafValues>
            9.2962545156478882e-001 7.6630437374114990e-001</leafValues></_>
        <_>
          <internalNodes>
            0 -1 316 5.7837762869894505e-004</internalNodes>
          <leafValues>
            8.1483078002929688e-001 3.4978473186492920e-001</leafValues></_>
        <_>
          <internalNodes>
            0 -1 326 6.0385257005691528e-002</internalNodes>
          <leafValues>
            -5.5017672479152679e-002 5.0107896327972412e-001</leafValues></_>
        <_>
          <internalNodes>
            0 -1 259 1.5238567721098661e-003</internalNodes>
          <leafValues>
            2.4568906426429749e-001 -2.7627202868461609e-001</leafValues></_>
        <_>
          <internalNodes>
            0 -1 575 1.7222175374627113e-003</internalNodes>
          <leafValues>
            -5.6592875719070435e-001 9.6768118441104889e-002</leafValues></_>
        <_>
          <internalNodes>
            0 -1 84 1.2132095871493220e-003</internalNodes>
          <leafValues>
            2.5884214043617249e-001 -2.1130339801311493e-001</leafValues></_>
        <_>
          <internalNodes>
            0 -1 25 4.5931185013614595e-004</internalNodes>
          <leafValues>
            2.4017418920993805e-001 -1.9155716896057129e-001</leafValues></_>
        <_>
          <internalNodes>
            0 -1 67 3.8998663512757048e-005</internalNodes>
          <leafValues>
            -8.9368802309036255e-001 4.8607762902975082e-002</leafValues></_>
        <_>
          <internalNodes>
            0 -1 478 8.1962943077087402e-003</internalNodes>
          <leafValues>
            -3.8058194518089294e-001 1.0313009470701218e-001</leafValues></_>
        <_>
          <internalNodes>
            0 -1 154 4.9691507592797279e-004</internalNodes>
          <leafValues>
            3.7302502989768982e-001 -1.0546218603849411e-001</leafValues></_>
        <_>
          <internalNodes>
            0 -1 9 2.4820525199174881e-002</internalNodes>
          <leafValues>
            -1.9977499544620514e-001 2.1747425198554993e-001</leafValues></_>
        <_>
          <internalNodes>
            0 -1 278 6.4391139894723892e-003</internalNodes>
          <leafValues>
            1.7114087939262390e-001 -1.9863967597484589e-001</leafValues></_>
        <_>
          <internalNodes>
            0 -1 439 3.4518573433160782e-002</internalNodes>
          <leafValues>
            5.5040732026100159e-002 -5.6098729372024536e-001</leafValues></_>
        <_>
          <internalNodes>
            0 -1 139 1.0724525153636932e-001</internalNodes>
          <leafValues>
            5.1305975764989853e-002 -5.0586605072021484e-001</leafValues></_>
        <_>
          <internalNodes>
            0 -1 455 2.3087890818715096e-002</internalNodes>
          <leafValues>
            1.0619594156742096e-001 -2.6808822154998779e-001</leafValues></_>
        <_>
          <internalNodes>
            0 -1 288 9.5737516880035400e-002</internalNodes>
          <leafValues>
            -3.6649718880653381e-002 7.5792920589447021e-001</leafValues></_>
        <_>
          <internalNodes>
            0 -1 472 2.9803479090332985e-002</internalNodes>
          <leafValues>
            -1.7314098775386810e-001 1.6153077781200409e-001</leafValues></_>
        <_>
          <internalNodes>
            0 -1 87 5.9546262491494417e-004</internalNodes>
          <leafValues>
            3.1894922256469727e-001 -7.5936898589134216e-002</leafValues></_>
        <_>
          <internalNodes>
            0 -1 528 1.0250127874314785e-002</internalNodes>
          <leafValues>
            -5.5078613758087158e-001 4.8740822821855545e-002</leafValues></_>
        <_>
          <internalNodes>
            0 -1 399 1.0269120335578918e-002</internalNodes>
          <leafValues>
            -3.1856036186218262e-001 8.1543989479541779e-002</leafValues></_>
        <_>
          <internalNodes>
            0 -1 1 6.0749228578060865e-004</internalNodes>
          <leafValues>
            2.0512047410011292e-001 -1.4684392511844635e-001</leafValues></_>
        <_>
          <internalNodes>
            0 -1 502 2.4133618921041489e-002</internalNodes>
          <leafValues>
            -1.7194376885890961e-001 1.8924161791801453e-001</leafValues></_>
        <_>
          <internalNodes>
            0 -1 301 3.4676800714805722e-004</internalNodes>
          <leafValues>
            3.0396437644958496e-001 -8.0133080482482910e-002</leafValues></_>
        <_>
          <internalNodes>
            0 -1 653 8.0661580432206392e-004</internalNodes>
          <leafValues>
            -3.4084245562553406e-001 7.1013815701007843e-002</leafValues></_>
        <_>
          <internalNodes>
            0 -1 346 6.8240729160606861e-004</internalNodes>
          <leafValues>
            2.5610741972923279e-001 -8.9868746697902679e-002</leafValues></_>
        <_>
          <internalNodes>
            0 -1 646 2.8817802667617798e-003</internalNodes>
          <leafValues>
            -4.8575401306152344e-001 4.9857877194881439e-002</leafValues></_>
        <_>
          <internalNodes>
            0 -1 3 1.9781716400757432e-004</internalNodes>
          <leafValues>
            1.7431138455867767e-001 -1.3948103785514832e-001</leafValues></_>
        <_>
          <internalNodes>
            0 -1 411 4.1679482819745317e-005</internalNodes>
          <leafValues>
            -5.1911902427673340e-001 4.5313619077205658e-002</leafValues></_>
        <_>
          <internalNodes>
            0 -1 56 5.4732558783143759e-004</internalNodes>
          <leafValues>
            2.7786606550216675e-001 -9.2998631298542023e-002</leafValues></_>
        <_>
          <internalNodes>
            0 -1 145 1.7801584303379059e-001</internalNodes>
          <leafValues>
            3.0618144199252129e-002 -7.8859221935272217e-001</leafValues></_>
        <_>
          <internalNodes>
            0 -1 291 3.6654810537584126e-004</internalNodes>
          <leafValues>
            3.7703830003738403e-001 -6.7362897098064423e-002</leafValues></_>
        <_>
          <internalNodes>
            0 -1 460 3.1713629141449928e-003</internalNodes>
          <leafValues>
            -3.7472033500671387e-001 6.3687913119792938e-002</leafValues></_>
        <_>
          <internalNodes>
            0 -1 212 4.3744914000853896e-004</internalNodes>
          <leafValues>
            3.1650355458259583e-001 -6.2900722026824951e-002</leafValues></_>
        <_>
          <internalNodes>
            0 -1 564 4.4251773942960426e-005</internalNodes>
          <leafValues>
            -4.0745139122009277e-001 5.0789944827556610e-002</leafValues></_>
        <_>
          <internalNodes>
            0 -1 650 4.6269070357084274e-002</internalNodes>
          <leafValues>
            -8.2627043128013611e-002 2.6403418183326721e-001</leafValues></_>
        <_>
          <internalNodes>
            0 -1 115 9.6796732395887375e-004</internalNodes>
          <leafValues>
            3.2719144225120544e-001 -6.1078555881977081e-002</leafValues></_>
        <_>
          <internalNodes>
            0 -1 557 1.1943110730499029e-003</internalNodes>
          <leafValues>
            -3.3737444877624512e-001 6.7969873547554016e-002</leafValues></_>
        <_>
          <internalNodes>
            0 -1 126 8.3879503654316068e-004</internalNodes>
          <leafValues>
            2.2379770874977112e-001 -8.7589196860790253e-002</leafValues></_>
        <_>
          <internalNodes>
            0 -1 206 1.9056791067123413e-001</internalNodes>
          <leafValues>
            3.7918779999017715e-002 -5.4718679189682007e-001</leafValues></_>
        <_>
          <internalNodes>
            0 -1 616 8.2205265760421753e-002</internalNodes>
          <leafValues>
            2.0843086764216423e-002 -7.8963035345077515e-001</leafValues></_>
        <_>
          <internalNodes>
            0 -1 50 3.3372052712365985e-004</internalNodes>
          <leafValues>
            2.1502187848091125e-001 -9.2887133359909058e-002</leafValues></_>
        <_>
          <internalNodes>
            0 -1 479 2.5365479290485382e-002</internalNodes>
          <leafValues>
            -9.2382229864597321e-002 2.3223172128200531e-001</leafValues></_>
        <_>
          <internalNodes>
            0 -1 248 3.4480132162570953e-002</internalNodes>
          <leafValues>
            -4.8954714089632034e-002 3.9101657271385193e-001</leafValues></_>
        <_>
          <internalNodes>
            0 -1 469 2.9924400150775909e-002</internalNodes>
          <leafValues>
            5.0099886953830719e-002 -4.0571063756942749e-001</leafValues></_>
        <_>
          <internalNodes>
            0 -1 32 7.1007370948791504e-002</internalNodes>
          <leafValues>
            -9.4540841877460480e-002 2.1767039597034454e-001</leafValues></_>
        <_>
          <internalNodes>
            0 -1 145 6.5383970737457275e-002</internalNodes>
          <leafValues>
            7.5303703546524048e-002 -2.6248154044151306e-001</leafValues></_>
        <_>
          <internalNodes>
            0 -1 283 3.5312570631504059e-002</internalNodes>
          <leafValues>
            -1.4313291013240814e-001 1.3764120638370514e-001</leafValues></_>
        <_>
          <internalNodes>
            0 -1 256 4.5616008341312408e-002</internalNodes>
          <leafValues>
            -6.5438769757747650e-002 3.0570504069328308e-001</leafValues></_>
        <_>
          <internalNodes>
            0 -1 189 3.3238418836845085e-005</internalNodes>
          <leafValues>
            -7.7167856693267822e-001 2.9306406155228615e-002</leafValues></_>
        <_>
          <internalNodes>
            0 -1 215 2.8940039919689298e-004</internalNodes>
          <leafValues>
            4.0310019254684448e-001 -7.2168983519077301e-002</leafValues></_>
        <_>
          <internalNodes>
            0 -1 19 2.0273057743906975e-002</internalNodes>
          <leafValues>
            -1.2453524023294449e-001 1.5604394674301147e-001</leafValues></_>
        <_>
          <internalNodes>
            0 -1 142 6.1395809054374695e-002</internalNodes>
          <leafValues>
            -5.4502386599779129e-002 3.1324288249015808e-001</leafValues></_>
        <_>
          <internalNodes>
            0 -1 418 1.1635451018810272e-001</internalNodes>
          <leafValues>
            2.4512855336070061e-002 -7.7196586132049561e-001</leafValues></_>
        <_>
          <internalNodes>
            0 -1 280 4.3398319394327700e-004</internalNodes>
          <leafValues>
            2.5276219844818115e-001 -7.1903258562088013e-002</leafValues></_>
        <_>
          <internalNodes>
            0 -1 571 4.4197848183102906e-005</internalNodes>
          <leafValues>
            -2.9307192564010620e-001 5.8915797621011734e-002</leafValues></_>
        <_>
          <internalNodes>
            0 -1 24 7.0121028693392873e-004</internalNodes>
          <leafValues>
            1.3480854034423828e-001 -1.2442315369844437e-001</leafValues></_>
        <_>
          <internalNodes>
            0 -1 415 4.0239058434963226e-003</internalNodes>
          <leafValues>
            -2.2566913068294525e-001 8.0672249197959900e-002</leafValues></_>
        <_>
          <internalNodes>
            0 -1 395 1.9539776444435120e-001</internalNodes>
          <leafValues>
            2.5064330548048019e-002 -6.7219758033752441e-001</leafValues></_>
        <_>
          <internalNodes>
            0 -1 45 4.7703454038128257e-004</internalNodes>
          <leafValues>
            2.2139595448970795e-001 -7.6622582972049713e-002</leafValues></_>
        <_>
          <internalNodes>
            0 -1 493 2.5902597699314356e-003</internalNodes>
          <leafValues>
            -3.2610091567039490e-001 5.5687110871076584e-002</leafValues></_>
        <_>
          <internalNodes>
            0 -1 297 2.6094214990735054e-004</internalNodes>
          <leafValues>
            3.4400537610054016e-001 -4.6152547001838684e-002</leafValues></_>
        <_>
          <internalNodes>
            0 -1 626 2.5710104964673519e-003</internalNodes>
          <leafValues>
            -2.7932471036911011e-001 6.0688901692628860e-002</leafValues></_>
        <_>
          <internalNodes>
            0 -1 658 3.8154534995555878e-002</internalNodes>
          <leafValues>
            -1.6919536888599396e-001 1.0574908554553986e-001</leafValues></_>
        <_>
          <internalNodes>
            0 -1 370 8.9349098503589630e-002</internalNodes>
          <leafValues>
            -4.3934885412454605e-002 4.0800935029983521e-001</leafValues></_>
        <_>
          <internalNodes>
            0 -1 299 5.9182204306125641e-002</internalNodes>
          <leafValues>
            -3.3685635775327682e-002 4.8658132553100586e-001</leafValues></_>
        <_>
          <internalNodes>
            0 -1 268 1.0572932660579681e-001</internalNodes>
          <leafValues>
            -1.4049453660845757e-002 8.9098769426345825e-001</leafValues></_>
        <_>
          <internalNodes>
            0 -1 566 2.1597878634929657e-001</internalNodes>
          <leafValues>
            2.6999210938811302e-002 -6.6744446754455566e-001</leafValues></_>
        <_>
          <internalNodes>
            0 -1 364 8.5889048874378204e-002</internalNodes>
          <leafValues>
            -2.4344192817807198e-002 6.9171011447906494e-001</leafValues></_>
        <_>
          <internalNodes>
            0 -1 107 7.6343789696693420e-002</internalNodes>
          <leafValues>
            -9.3843050301074982e-002 1.6238045692443848e-001</leafValues></_>
        <_>
          <internalNodes>
            0 -1 471 6.0589626431465149e-002</internalNodes>
          <leafValues>
            -1.0955215245485306e-001 1.4159700274467468e-001</leafValues></_>
        <_>
          <internalNodes>
            0 -1 131 3.2404556870460510e-002</internalNodes>
          <leafValues>
            -6.4615219831466675e-002 2.8536081314086914e-001</leafValues></_>
        <_>
          <internalNodes>
            0 -1 39 6.5549602732062340e-004</internalNodes>
          <leafValues>
            1.7736200988292694e-001 -8.3216838538646698e-002</leafValues></_>
        <_>
          <internalNodes>
            0 -1 158 2.6312271074857563e-005</internalNodes>
          <leafValues>
            -7.1355634927749634e-001 2.3587414994835854e-002</leafValues></_>
        <_>
          <internalNodes>
            0 -1 161 3.0969339422881603e-003</internalNodes>
          <leafValues>
            2.4162147939205170e-001 -6.8844169378280640e-002</leafValues></_>
        <_>
          <internalNodes>
            0 -1 487 1.7101401463150978e-003</internalNodes>
          <leafValues>
            -3.7064182758331299e-001 4.6787027269601822e-002</leafValues></_>
        <_>
          <internalNodes>
            0 -1 136 4.7242738306522369e-002</internalNodes>
          <leafValues>
            -5.0495583564043045e-002 2.8041720390319824e-001</leafValues></_>
        <_>
          <internalNodes>
            0 -1 484 4.1597016155719757e-002</internalNodes>
          <leafValues>
            -5.7064924389123917e-002 2.5995308160781860e-001</leafValues></_>
        <_>
          <internalNodes>
            0 -1 340 1.2961445609107614e-003</internalNodes>
          <leafValues>
            -6.3491976261138916e-001 2.3841282352805138e-002</leafValues></_>
        <_>
          <internalNodes>
            0 -1 260 3.0009244801476598e-004</internalNodes>
          <leafValues>
            1.8061904609203339e-001 -8.3715319633483887e-002</leafValues></_>
        <_>
          <internalNodes>
            0 -1 141 9.6722934395074844e-003</internalNodes>
          <leafValues>
            -1.4744824171066284e-001 1.0547861456871033e-001</leafValues></_>
        <_>
          <internalNodes>
            0 -1 388 1.5890441834926605e-002</internalNodes>
          <leafValues>
            1.0533120483160019e-001 -1.4929315447807312e-001</leafValues></_>
        <_>
          <internalNodes>
            0 -1 428 1.5500012040138245e-001</internalNodes>
          <leafValues>
            1.8044840544462204e-002 -8.2336980104446411e-001</leafValues></_>
        <_>
          <internalNodes>
            0 -1 2 6.8262075074017048e-003</internalNodes>
          <leafValues>
            7.2746016085147858e-002 -1.9517268240451813e-001</leafValues></_>
        <_>
          <internalNodes>
            0 -1 446 3.5817978641716763e-005</internalNodes>
          <leafValues>
            -5.3859692811965942e-001 2.5223793461918831e-002</leafValues></_>
        <_>
          <internalNodes>
            0 -1 64 4.6144035877659917e-004</internalNodes>
          <leafValues>
            2.5572407245635986e-001 -7.7174484729766846e-002</leafValues></_>
        <_>
          <internalNodes>
            0 -1 548 2.7832865715026855e-002</internalNodes>
          <leafValues>
            -8.3821296691894531e-002 1.9810128211975098e-001</leafValues></_>
        <_>
          <internalNodes>
            0 -1 385 1.3691189885139465e-001</internalNodes>
          <leafValues>
            2.2386025637388229e-002 -7.2354203462600708e-001</leafValues></_>
        <_>
          <internalNodes>
            0 -1 244 5.2380509674549103e-002</internalNodes>
          <leafValues>
            -7.3229826986789703e-002 2.1070830523967743e-001</leafValues></_>
        <_>
          <internalNodes>
            0 -1 575 1.1585023999214172e-001</internalNodes>
          <leafValues>
            2.3135449737310410e-002 -6.6866213083267212e-001</leafValues></_>
        <_>
          <internalNodes>
            0 -1 423 4.6333633363246918e-002</internalNodes>
          <leafValues>
            -7.3342092335224152e-002 2.5152140855789185e-001</leafValues></_>
        <_>
          <internalNodes>
            0 -1 442 5.4345242679119110e-002</internalNodes>
          <leafValues>
            -6.9394811987876892e-002 2.3570065200328827e-001</leafValues></_>
        <_>
          <internalNodes>
            0 -1 62 1.3589579612016678e-003</internalNodes>
          <leafValues>
            2.8395518660545349e-001 -5.4588336497545242e-002</leafValues></_>
        <_>
          <internalNodes>
            0 -1 480 1.8277509370818734e-003</internalNodes>
          <leafValues>
            -3.1257691979408264e-001 5.5507294833660126e-002</leafValues></_>
        <_>
          <internalNodes>
            0 -1 197 2.6762813329696655e-001</internalNodes>
          <leafValues>
            2.1592423319816589e-002 -7.6171344518661499e-001</leafValues></_>
        <_>
          <internalNodes>
            0 -1 553 1.4330005645751953e-001</internalNodes>
          <leafValues>
            1.5131785534322262e-002 -7.6587158441543579e-001</leafValues></_>
        <_>
          <internalNodes>
            0 -1 439 6.7875601351261139e-002</internalNodes>
          <leafValues>
            1.3542610220611095e-002 -8.7598955631256104e-001</leafValues></_></weakClassifiers></_>
    <!-- stage 16 -->
    <_>
      <maxWeakCount>86</maxWeakCount>
      <stageThreshold>-6.8778216838836670e-002</stageThreshold>
      <weakClassifiers>
        <_>
          <internalNodes>
            0 -1 392 1.2781289219856262e-001</internalNodes>
          <leafValues>
            8.9786785840988159e-001 -1.</leafValues></_>
        <_>
          <internalNodes>
            0 -1 3 4.3916739523410797e-003</internalNodes>
          <leafValues>
            6.4270472526550293e-001 7.7923931181430817e-002</leafValues></_>
        <_>
          <internalNodes>
            0 -1 298 2.0759928156621754e-004</internalNodes>
          <leafValues>
            5.0500035285949707e-001 -1.2224374711513519e-001</leafValues></_>
        <_>
          <internalNodes>
            0 -1 277 3.9858429227024317e-004</internalNodes>
          <leafValues>
            4.1189301013946533e-001 -1.3951672613620758e-001</leafValues></_>
        <_>
          <internalNodes>
            0 -1 574 1.7484337091445923e-002</internalNodes>
          <leafValues>
            -3.0356386303901672e-001 2.0895875990390778e-001</leafValues></_>
        <_>
          <internalNodes>
            0 -1 73 4.0172848850488663e-002</internalNodes>
          <leafValues>
            -2.7242618799209595e-001 1.7984831333160400e-001</leafValues></_>
        <_>
          <internalNodes>
            0 -1 100 7.2492001345381141e-004</internalNodes>
          <leafValues>
            2.8123423457145691e-001 -1.4013713598251343e-001</leafValues></_>
        <_>
          <internalNodes>
            0 -1 494 6.1599938198924065e-003</internalNodes>
          <leafValues>
            -4.5086917281150818e-001 7.4749700725078583e-002</leafValues></_>
        <_>
          <internalNodes>
            0 -1 7 4.9025624990463257e-002</internalNodes>
          <leafValues>
            -1.1823607236146927e-001 3.1888705492019653e-001</leafValues></_>
        <_>
          <internalNodes>
            0 -1 328 1.2099003419280052e-002</internalNodes>
          <leafValues>
            1.3310734927654266e-001 -2.6688405871391296e-001</leafValues></_>
        <_>
          <internalNodes>
            0 -1 606 1.3686718419194221e-002</internalNodes>
          <leafValues>
            -5.9953284263610840e-001 6.0467548668384552e-002</leafValues></_>
        <_>
          <internalNodes>
            0 -1 23 3.0855590011924505e-004</internalNodes>
          <leafValues>
            2.4344074726104736e-001 -1.5198178589344025e-001</leafValues></_>
        <_>
          <internalNodes>
            0 -1 399 2.0644512027502060e-002</internalNodes>
          <leafValues>
            -2.7573111653327942e-001 1.6523100435733795e-001</leafValues></_>
        <_>
          <internalNodes>
            0 -1 250 2.5614770129323006e-003</internalNodes>
          <leafValues>
            -6.4867413043975830e-001 5.7917315512895584e-002</leafValues></_>
        <_>
          <internalNodes>
            0 -1 49 4.0738143026828766e-002</internalNodes>
          <leafValues>
            -8.3248957991600037e-002 3.8830092549324036e-001</leafValues></_>
        <_>
          <internalNodes>
            0 -1 419 4.3038465082645416e-002</internalNodes>
          <leafValues>
            -1.1507939547300339e-001 2.6891025900840759e-001</leafValues></_>
        <_>
          <internalNodes>
            0 -1 654 1.0165012208744884e-003</internalNodes>
          <leafValues>
            -3.0499741435050964e-001 8.9660570025444031e-002</leafValues></_>
        <_>
          <internalNodes>
            0 -1 369 6.7308405414223671e-004</internalNodes>
          <leafValues>
            3.4632471203804016e-001 -1.0765457153320313e-001</leafValues></_>
        <_>
          <internalNodes>
            0 -1 449 2.8179015964269638e-002</internalNodes>
          <leafValues>
            5.9962227940559387e-002 -4.5952665805816650e-001</leafValues></_>
        <_>
          <internalNodes>
            0 -1 258 1.1027570813894272e-002</internalNodes>
          <leafValues>
            1.7412717640399933e-001 -1.5478011965751648e-001</leafValues></_>
        <_>
          <internalNodes>
            0 -1 619 1.1813091259682551e-004</internalNodes>
          <leafValues>
            -7.4212133884429932e-001 4.1515629738569260e-002</leafValues></_>
        <_>
          <internalNodes>
            0 -1 273 3.4786056494340301e-004</internalNodes>
          <leafValues>
            3.6035057902336121e-001 -8.0766491591930389e-002</leafValues></_>
        <_>
          <internalNodes>
            0 -1 10 2.8633070542127825e-005</internalNodes>
          <leafValues>
            -5.9369927644729614e-001 5.0593193620443344e-002</leafValues></_>
        <_>
          <internalNodes>
            0 -1 538 1.5022240579128265e-001</internalNodes>
          <leafValues>
            4.6406518667936325e-002 -5.1494431495666504e-001</leafValues></_>
        <_>
          <internalNodes>
            0 -1 271 2.6055756025016308e-003</internalNodes>
          <leafValues>
            3.3281391859054565e-001 -8.6971886456012726e-002</leafValues></_>
        <_>
          <internalNodes>
            0 -1 483 1.2204736471176147e-001</internalNodes>
          <leafValues>
            4.3379217386245728e-002 -5.7089787721633911e-001</leafValues></_>
        <_>
          <internalNodes>
            0 -1 345 1.1648839339613914e-002</internalNodes>
          <leafValues>
            1.1955736577510834e-001 -2.0035068690776825e-001</leafValues></_>
        <_>
          <internalNodes>
            0 -1 477 1.7322245985269547e-003</internalNodes>
          <leafValues>
            -5.1440232992172241e-001 4.3306563049554825e-002</leafValues></_>
        <_>
          <internalNodes>
            0 -1 34 4.6018656576052308e-004</internalNodes>
          <leafValues>
            2.7270278334617615e-001 -1.2073052674531937e-001</leafValues></_>
        <_>
          <internalNodes>
            0 -1 607 3.8389987312257290e-003</internalNodes>
          <leafValues>
            -2.9832509160041809e-001 9.0266659855842590e-002</leafValues></_>
        <_>
          <internalNodes>
            0 -1 509 4.2761027812957764e-002</internalNodes>
          <leafValues>
            -8.9539930224418640e-002 2.6029726862907410e-001</leafValues></_>
        <_>
          <internalNodes>
            0 -1 105 2.5286281015723944e-004</internalNodes>
          <leafValues>
            3.4714645147323608e-001 -7.0188142359256744e-002</leafValues></_>
        <_>
          <internalNodes>
            0 -1 418 9.7823947668075562e-002</internalNodes>
          <leafValues>
            3.2744158059358597e-002 -6.1457186937332153e-001</leafValues></_>
        <_>
          <internalNodes>
            0 -1 2 1.0564820840954781e-003</internalNodes>
          <leafValues>
            1.2429537624120712e-001 -1.6429196298122406e-001</leafValues></_>
        <_>
          <internalNodes>
            0 -1 625 4.2129099369049072e-002</internalNodes>
          <leafValues>
            -1.9881001114845276e-001 1.1066340655088425e-001</leafValues></_>
        <_>
          <internalNodes>
            0 -1 540 1.4659077860414982e-003</internalNodes>
          <leafValues>
            -2.7725434303283691e-001 7.7563531696796417e-002</leafValues></_>
        <_>
          <internalNodes>
            0 -1 220 5.9967522975057364e-004</internalNodes>
          <leafValues>
            3.2983303070068359e-001 -7.5153768062591553e-002</leafValues></_>
        <_>
          <internalNodes>
            0 -1 192 3.1205706298351288e-002</internalNodes>
          <leafValues>
            -5.7314187288284302e-002 3.7269970774650574e-001</leafValues></_>
        <_>
          <internalNodes>
            0 -1 58 5.5703341960906982e-002</internalNodes>
          <leafValues>
            -7.9941503703594208e-002 2.6091989874839783e-001</leafValues></_>
        <_>
          <internalNodes>
            0 -1 27 2.9430128633975983e-002</internalNodes>
          <leafValues>
            -1.3989727199077606e-001 1.5563115477561951e-001</leafValues></_>
        <_>
          <internalNodes>
            0 -1 250 1.2821060419082642e-001</internalNodes>
          <leafValues>
            7.3574103415012360e-002 -3.3903625607490540e-001</leafValues></_>
        <_>
          <internalNodes>
            0 -1 559 2.9644230380654335e-003</internalNodes>
          <leafValues>
            -4.4822904467582703e-001 4.2299304157495499e-002</leafValues></_>
        <_>
          <internalNodes>
            0 -1 235 3.6273815203458071e-004</internalNodes>
          <leafValues>
            4.0253335237503052e-001 -6.8592265248298645e-002</leafValues></_>
        <_>
          <internalNodes>
            0 -1 236 2.7792530090664513e-005</internalNodes>
          <leafValues>
            -8.1216669082641602e-001 2.5082908570766449e-002</leafValues></_>
        <_>
          <internalNodes>
            0 -1 142 3.7458702921867371e-002</internalNodes>
          <leafValues>
            -1.0642512142658234e-001 2.0450770854949951e-001</leafValues></_>
        <_>
          <internalNodes>
            0 -1 260 2.9137223027646542e-003</internalNodes>
          <leafValues>
            1.6067174077033997e-001 -1.4189116656780243e-001</leafValues></_>
        <_>
          <internalNodes>
            0 -1 517 7.0851892232894897e-003</internalNodes>
          <leafValues>
            -2.5204372406005859e-001 8.3575353026390076e-002</leafValues></_>
        <_>
          <internalNodes>
            0 -1 11 1.3280838029459119e-003</internalNodes>
          <leafValues>
            2.1867997944355011e-001 -9.9808059632778168e-002</leafValues></_>
        <_>
          <internalNodes>
            0 -1 35 3.2398522307630628e-005</internalNodes>
          <leafValues>
            -5.8070188760757446e-001 4.0103554725646973e-002</leafValues></_>
        <_>
          <internalNodes>
            0 -1 199 4.5225083827972412e-002</internalNodes>
          <leafValues>
            -4.8016712069511414e-002 4.5390719175338745e-001</leafValues></_>
        <_>
          <internalNodes>
            0 -1 85 7.8119977843016386e-004</internalNodes>
          <leafValues>
            2.5480458140373230e-001 -9.3756183981895447e-002</leafValues></_>
        <_>
          <internalNodes>
            0 -1 315 5.1278027240186930e-004</internalNodes>
          <leafValues>
            -7.6390606164932251e-001 2.8203485533595085e-002</leafValues></_>
        <_>
          <internalNodes>
            0 -1 1 3.6403219564817846e-004</internalNodes>
          <leafValues>
            1.7316886782646179e-001 -1.0699032992124557e-001</leafValues></_>
        <_>
          <internalNodes>
            0 -1 393 5.8828026521950960e-004</internalNodes>
          <leafValues>
            -2.2780211269855499e-001 1.0011312365531921e-001</leafValues></_>
        <_>
          <internalNodes>
            0 -1 414 3.1162619590759277e-002</internalNodes>
          <leafValues>
            4.6910870820283890e-002 -4.5660832524299622e-001</leafValues></_>
        <_>
          <internalNodes>
            0 -1 311 3.1213095644488931e-004</internalNodes>
          <leafValues>
            2.9581871628761292e-001 -7.1677379310131073e-002</leafValues></_>
        <_>
          <internalNodes>
            0 -1 425 1.0075506288558245e-003</internalNodes>
          <leafValues>
            -3.4652158617973328e-001 7.5928725302219391e-002</leafValues></_>
        <_>
          <internalNodes>
            0 -1 319 9.7311218269169331e-004</internalNodes>
          <leafValues>
            2.5563788414001465e-001 -8.4185250103473663e-002</leafValues></_>
        <_>
          <internalNodes>
            0 -1 390 4.8265904188156128e-002</internalNodes>
          <leafValues>
            6.9017291069030762e-002 -3.0073893070220947e-001</leafValues></_>
        <_>
          <internalNodes>
            0 -1 595 1.4435182092711329e-003</internalNodes>
          <leafValues>
            -5.3717076778411865e-001 3.5943035036325455e-002</leafValues></_>
        <_>
          <internalNodes>
            0 -1 282 1.3479709625244141e-002</internalNodes>
          <leafValues>
            1.3884569704532623e-001 -1.3702283799648285e-001</leafValues></_>
        <_>
          <internalNodes>
            0 -1 612 3.5485886037349701e-002</internalNodes>
          <leafValues>
            -7.8782729804515839e-002 2.7127435803413391e-001</leafValues></_>
        <_>
          <internalNodes>
            0 -1 252 1.5403398871421814e-001</internalNodes>
          <leafValues>
            4.4674523174762726e-002 -4.3318867683410645e-001</leafValues></_>
        <_>
          <internalNodes>
            0 -1 285 8.2542628049850464e-002</internalNodes>
          <leafValues>
            -4.6664230525493622e-002 4.5104891061782837e-001</leafValues></_>
        <_>
          <internalNodes>
            0 -1 151 2.8583704988704994e-005</internalNodes>
          <leafValues>
            -7.9115259647369385e-001 2.6223478838801384e-002</leafValues></_>
        <_>
          <internalNodes>
            0 -1 389 6.8563247623387724e-005</internalNodes>
          <leafValues>
            -6.9210404157638550e-001 1.9565712660551071e-002</leafValues></_>
        <_>
          <internalNodes>
            0 -1 125 6.0998380649834871e-004</internalNodes>
          <leafValues>
            2.8433263301849365e-001 -7.5762681663036346e-002</leafValues></_>
        <_>
          <internalNodes>
            0 -1 555 7.1774069219827652e-003</internalNodes>
          <leafValues>
            -2.0880143344402313e-001 9.2767715454101563e-002</leafValues></_>
        <_>
          <internalNodes>
            0 -1 357 5.6532467715442181e-004</internalNodes>
          <leafValues>
            3.8795280456542969e-001 -7.0144243538379669e-002</leafValues></_>
        <_>
          <internalNodes>
            0 -1 575 1.0401067137718201e-001</internalNodes>
          <leafValues>
            2.9557911679148674e-002 -6.7935752868652344e-001</leafValues></_>
        <_>
          <internalNodes>
            0 -1 132 2.4789463728666306e-002</internalNodes>
          <leafValues>
            -2.0377826690673828e-001 9.0111762285232544e-002</leafValues></_>
        <_>
          <internalNodes>
            0 -1 115 1.1191779375076294e-001</internalNodes>
          <leafValues>
            2.2927392274141312e-002 -8.0565476417541504e-001</leafValues></_>
        <_>
          <internalNodes>
            0 -1 625 1.9800812005996704e-001</internalNodes>
          <leafValues>
            2.8585199266672134e-002 -5.1403546333312988e-001</leafValues></_>
        <_>
          <internalNodes>
            0 -1 83 5.2509951638057828e-004</internalNodes>
          <leafValues>
            2.3489800095558167e-001 -7.6329588890075684e-002</leafValues></_>
        <_>
          <internalNodes>
            0 -1 470 1.4111937489360571e-003</internalNodes>
          <leafValues>
            -4.3771225214004517e-001 4.4380895793437958e-002</leafValues></_>
        <_>
          <internalNodes>
            0 -1 8 4.9785301089286804e-002</internalNodes>
          <leafValues>
            -6.8254970014095306e-002 2.8336709737777710e-001</leafValues></_>
        <_>
          <internalNodes>
            0 -1 183 5.3131151944398880e-002</internalNodes>
          <leafValues>
            -3.8894712924957275e-002 4.5046755671501160e-001</leafValues></_>
        <_>
          <internalNodes>
            0 -1 392 6.0553137212991714e-002</internalNodes>
          <leafValues>
            2.7848409488797188e-002 -6.4147716760635376e-001</leafValues></_>
        <_>
          <internalNodes>
            0 -1 255 3.1668126583099365e-002</internalNodes>
          <leafValues>
            -7.7218092978000641e-002 2.0954822003841400e-001</leafValues></_>
        <_>
          <internalNodes>
            0 -1 6 6.1024136841297150e-002</internalNodes>
          <leafValues>
            -6.0967694967985153e-002 3.0253383517265320e-001</leafValues></_>
        <_>
          <internalNodes>
            0 -1 449 7.3130428791046143e-002</internalNodes>
          <leafValues>
            2.0462311804294586e-002 -8.4177684783935547e-001</leafValues></_>
        <_>
          <internalNodes>
            0 -1 118 5.5599340703338385e-004</internalNodes>
          <leafValues>
            2.5173345208168030e-001 -6.7908599972724915e-002</leafValues></_>
        <_>
          <internalNodes>
            0 -1 435 4.2247706005582586e-005</internalNodes>
          <leafValues>
            -5.9879404306411743e-001 3.0456300824880600e-002</leafValues></_>
        <_>
          <internalNodes>
            0 -1 3 3.4864887129515409e-004</internalNodes>
          <leafValues>
            1.3253915309906006e-001 -1.1932673305273056e-001</leafValues></_>
        <_>
          <internalNodes>
            0 -1 301 1.4199352823197842e-002</internalNodes>
          <leafValues>
            1.0881958901882172e-001 -1.7147436738014221e-001</leafValues></_>
        <_>
          <internalNodes>
            0 -1 609 1.5611883997917175e-001</internalNodes>
          <leafValues>
            3.0254010111093521e-002 -5.5495315790176392e-001</leafValues></_></weakClassifiers></_>
    <!-- stage 17 -->
    <_>
      <maxWeakCount>92</maxWeakCount>
      <stageThreshold>-7.1136787533760071e-002</stageThreshold>
      <weakClassifiers>
        <_>
          <internalNodes>
            0 -1 3 5.8529670350253582e-003</internalNodes>
          <leafValues>
            9.2462313175201416e-001 7.4235105514526367e-001</leafValues></_>
        <_>
          <internalNodes>
            0 -1 367 2.4559572339057922e-003</internalNodes>
          <leafValues>
            7.5293421745300293e-001 2.8975817561149597e-001</leafValues></_>
        <_>
          <internalNodes>
            0 -1 316 5.3630454931408167e-004</internalNodes>
          <leafValues>
            5.2704071998596191e-001 -8.3210758864879608e-002</leafValues></_>
        <_>
          <internalNodes>
            0 -1 3 4.4485082617029548e-004</internalNodes>
          <leafValues>
            2.3637628555297852e-001 -2.5575813651084900e-001</leafValues></_>
        <_>
          <internalNodes>
            0 -1 73 7.9026957973837852e-003</internalNodes>
          <leafValues>
            -5.5271863937377930e-001 4.8491861671209335e-002</leafValues></_>
        <_>
          <internalNodes>
            0 -1 259 8.2469516200944781e-004</internalNodes>
          <leafValues>
            2.9212054610252380e-001 -2.1149352192878723e-001</leafValues></_>
        <_>
          <internalNodes>
            0 -1 403 2.9405806213617325e-002</internalNodes>
          <leafValues>
            8.8540084660053253e-002 -5.5324989557266235e-001</leafValues></_>
        <_>
          <internalNodes>
            0 -1 599 1.3984076678752899e-002</internalNodes>
          <leafValues>
            -3.3072715997695923e-001 1.0647729039192200e-001</leafValues></_>
        <_>
          <internalNodes>
            0 -1 117 9.6778839360922575e-004</internalNodes>
          <leafValues>
            2.5162082910537720e-001 -1.3849103450775146e-001</leafValues></_>
        <_>
          <internalNodes>
            0 -1 143 8.3260312676429749e-003</internalNodes>
          <leafValues>
            -2.2739250957965851e-001 1.4232122898101807e-001</leafValues></_>
        <_>
          <internalNodes>
            0 -1 279 9.2627201229333878e-003</internalNodes>
          <leafValues>
            1.4105957746505737e-001 -2.2397474944591522e-001</leafValues></_>
        <_>
          <internalNodes>
            0 -1 243 5.9409789741039276e-002</internalNodes>
          <leafValues>
            4.0360040962696075e-002 -6.2556546926498413e-001</leafValues></_>
        <_>
          <internalNodes>
            0 -1 23 6.5925286617130041e-004</internalNodes>
          <leafValues>
            1.9113214313983917e-001 -1.6029553115367889e-001</leafValues></_>
        <_>
          <internalNodes>
            0 -1 479 3.7752429489046335e-003</internalNodes>
          <leafValues>
            -3.3980536460876465e-001 9.4271555542945862e-002</leafValues></_>
        <_>
          <internalNodes>
            0 -1 172 4.2749225394800305e-004</internalNodes>
          <leafValues>
            3.6713680624961853e-001 -7.8573413193225861e-002</leafValues></_>
        <_>
          <internalNodes>
            0 -1 486 6.8636527284979820e-003</internalNodes>
          <leafValues>
            -3.5632055997848511e-001 9.0495772659778595e-002</leafValues></_>
        <_>
          <internalNodes>
            0 -1 589 3.5827733576297760e-002</internalNodes>
          <leafValues>
            -1.3189546763896942e-001 2.6658445596694946e-001</leafValues></_>
        <_>
          <internalNodes>
            0 -1 295 4.7293215990066528e-002</internalNodes>
          <leafValues>
            -6.6159673035144806e-002 3.9407610893249512e-001</leafValues></_>
        <_>
          <internalNodes>
            0 -1 162 2.1542544709518552e-004</internalNodes>
          <leafValues>
            4.2921397089958191e-001 -6.2550164759159088e-002</leafValues></_>
        <_>
          <internalNodes>
            0 -1 653 3.0031385904294439e-005</internalNodes>
          <leafValues>
            -4.4667157530784607e-001 6.0580175369977951e-002</leafValues></_>
        <_>
          <internalNodes>
            0 -1 79 9.0445310343056917e-004</internalNodes>
          <leafValues>
            2.8726688027381897e-001 -1.0557761043310165e-001</leafValues></_>
        <_>
          <internalNodes>
            0 -1 435 4.1587340092519298e-005</internalNodes>
          <leafValues>
            -6.5571624040603638e-001 3.9181601256132126e-002</leafValues></_>
        <_>
          <internalNodes>
            0 -1 227 3.6703693331219256e-004</internalNodes>
          <leafValues>
            2.7358794212341309e-001 -9.8710529506206512e-002</leafValues></_>
        <_>
          <internalNodes>
            0 -1 390 7.0049375295639038e-002</internalNodes>
          <leafValues>
            5.3002830594778061e-002 -4.5680364966392517e-001</leafValues></_>
        <_>
          <internalNodes>
            0 -1 10 2.8633070542127825e-005</internalNodes>
          <leafValues>
            -5.6362843513488770e-001 4.0861837565898895e-002</leafValues></_>
        <_>
          <internalNodes>
            0 -1 272 2.8108363039791584e-004</internalNodes>
          <leafValues>
            3.0257663130760193e-001 -7.8228995203971863e-002</leafValues></_>
        <_>
          <internalNodes>
            0 -1 41 2.7537463232874870e-002</internalNodes>
          <leafValues>
            -9.9630780518054962e-002 2.3375149071216583e-001</leafValues></_>
        <_>
          <internalNodes>
            0 -1 655 3.3928908407688141e-002</internalNodes>
          <leafValues>
            6.6232398152351379e-002 -4.2557597160339355e-001</leafValues></_>
        <_>
          <internalNodes>
            0 -1 199 7.5485803186893463e-002</internalNodes>
          <leafValues>
            -3.0323315411806107e-002 7.8784906864166260e-001</leafValues></_>
        <_>
          <internalNodes>
            0 -1 7 7.1744710206985474e-002</internalNodes>
          <leafValues>
            -5.4196033626794815e-002 3.5261505842208862e-001</leafValues></_>
        <_>
          <internalNodes>
            0 -1 113 6.4725115895271301e-002</internalNodes>
          <leafValues>
            -7.7552251517772675e-002 2.7592924237251282e-001</leafValues></_>
        <_>
          <internalNodes>
            0 -1 314 6.8554162979125977e-002</internalNodes>
          <leafValues>
            -5.7077698409557343e-002 3.6370241641998291e-001</leafValues></_>
        <_>
          <internalNodes>
            0 -1 540 1.6145469853654504e-003</internalNodes>
          <leafValues>
            -2.8661403059959412e-001 7.7170051634311676e-002</leafValues></_>
        <_>
          <internalNodes>
            0 -1 66 7.6176837319508195e-004</internalNodes>
          <leafValues>
            2.2720792889595032e-001 -1.0146825015544891e-001</leafValues></_>
        <_>
          <internalNodes>
            0 -1 423 1.0368300601840019e-002</internalNodes>
          <leafValues>
            -2.4355384707450867e-001 9.7370952367782593e-002</leafValues></_>
        <_>
          <internalNodes>
            0 -1 231 3.1354674138128757e-004</internalNodes>
          <leafValues>
            3.6250847578048706e-001 -6.9006651639938354e-002</leafValues></_>
        <_>
          <internalNodes>
            0 -1 532 1.4863088726997375e-003</internalNodes>
          <leafValues>
            -5.7708191871643066e-001 3.6284822970628738e-002</leafValues></_>
        <_>
          <internalNodes>
            0 -1 136 2.5399914011359215e-002</internalNodes>
          <leafValues>
            -1.0698572546243668e-001 2.2913610935211182e-001</leafValues></_>
        <_>
          <internalNodes>
            0 -1 1 1.2995967408642173e-003</internalNodes>
          <leafValues>
            1.9713361561298370e-001 -1.5612111985683441e-001</leafValues></_>
        <_>
          <internalNodes>
            0 -1 109 1.7783384770154953e-002</internalNodes>
          <leafValues>
            9.2424079775810242e-002 -2.3748087882995605e-001</leafValues></_>
        <_>
          <internalNodes>
            0 -1 564 1.0669090552255511e-003</internalNodes>
          <leafValues>
            -3.4873223304748535e-001 5.4325424134731293e-002</leafValues></_>
        <_>
          <internalNodes>
            0 -1 473 9.1395586729049683e-002</internalNodes>
          <leafValues>
            2.6090394705533981e-002 -8.4713488817214966e-001</leafValues></_>
        <_>
          <internalNodes>
            0 -1 306 4.6384796500205994e-002</internalNodes>
          <leafValues>
            -5.9036456048488617e-002 3.8435643911361694e-001</leafValues></_>
        <_>
          <internalNodes>
            0 -1 313 5.0376739818602800e-004</internalNodes>
          <leafValues>
            2.8996360301971436e-001 -6.6138155758380890e-002</leafValues></_>
        <_>
          <internalNodes>
            0 -1 196 4.2660005390644073e-002</internalNodes>
          <leafValues>
            -4.9271538853645325e-002 4.6206304430961609e-001</leafValues></_>
        <_>
          <internalNodes>
            0 -1 422 6.9693446159362793e-002</internalNodes>
          <leafValues>
            2.6715463027358055e-002 -9.6055483818054199e-001</leafValues></_>
        <_>
          <internalNodes>
            0 -1 106 5.3992960602045059e-002</internalNodes>
          <leafValues>
            -8.5814982652664185e-002 2.4024693667888641e-001</leafValues></_>
        <_>
          <internalNodes>
            0 -1 374 3.0841855914331973e-004</internalNodes>
          <leafValues>
            4.2333361506462097e-001 -5.1923349499702454e-002</leafValues></_>
        <_>
          <internalNodes>
            0 -1 444 7.5586326420307159e-002</internalNodes>
          <leafValues>
            4.1940364986658096e-002 -4.7420018911361694e-001</leafValues></_>
        <_>
          <internalNodes>
            0 -1 265 5.6994050741195679e-002</internalNodes>
          <leafValues>
            -5.3754135966300964e-002 4.2648848891258240e-001</leafValues></_>
        <_>
          <internalNodes>
            0 -1 622 1.2892827726318501e-005</internalNodes>
          <leafValues>
            -5.2147138118743896e-001 4.3307442218065262e-002</leafValues></_>
        <_>
          <internalNodes>
            0 -1 596 4.2681202292442322e-002</internalNodes>
          <leafValues>
            -1.6825583577156067e-001 1.3722573220729828e-001</leafValues></_>
        <_>
          <internalNodes>
            0 -1 518 1.8907900899648666e-002</internalNodes>
          <leafValues>
            -1.1827348917722702e-001 1.8921999633312225e-001</leafValues></_>
        <_>
          <internalNodes>
            0 -1 457 1.5332934260368347e-001</internalNodes>
          <leafValues>
            2.8594782575964928e-002 -7.6999694108963013e-001</leafValues></_>
        <_>
          <internalNodes>
            0 -1 141 4.1181813925504684e-002</internalNodes>
          <leafValues>
            -7.9111889004707336e-002 2.7819734811782837e-001</leafValues></_>
        <_>
          <internalNodes>
            0 -1 258 1.1906107887625694e-002</internalNodes>
          <leafValues>
            1.5716613829135895e-001 -1.3352878391742706e-001</leafValues></_>
        <_>
          <internalNodes>
            0 -1 597 5.2838958799839020e-002</internalNodes>
          <leafValues>
            -8.4869340062141418e-002 2.7226087450981140e-001</leafValues></_>
        <_>
          <internalNodes>
            0 -1 32 2.5019643828272820e-002</internalNodes>
          <leafValues>
            -1.9640994071960449e-001 1.0491932183504105e-001</leafValues></_>
        <_>
          <internalNodes>
            0 -1 27 5.9778593480587006e-002</internalNodes>
          <leafValues>
            -9.2090740799903870e-002 2.2537350654602051e-001</leafValues></_>
        <_>
          <internalNodes>
            0 -1 618 2.1888425946235657e-001</internalNodes>
          <leafValues>
            3.1315427273511887e-002 -7.0031285285949707e-001</leafValues></_>
        <_>
          <internalNodes>
            0 -1 277 4.7509964555501938e-002</internalNodes>
          <leafValues>
            -5.0758760422468185e-002 4.0404585003852844e-001</leafValues></_>
        <_>
          <internalNodes>
            0 -1 611 3.5905532538890839e-002</internalNodes>
          <leafValues>
            -4.2497999966144562e-002 3.9186263084411621e-001</leafValues></_>
        <_>
          <internalNodes>
            0 -1 250 1.4847457641735673e-003</internalNodes>
          <leafValues>
            -5.9852755069732666e-001 3.1644362956285477e-002</leafValues></_>
        <_>
          <internalNodes>
            0 -1 296 8.1988505553454161e-004</internalNodes>
          <leafValues>
            3.0353552103042603e-001 -6.5188162028789520e-002</leafValues></_>
        <_>
          <internalNodes>
            0 -1 290 1.6431601252406836e-003</internalNodes>
          <leafValues>
            -6.1313247680664063e-001 2.7825420722365379e-002</leafValues></_>
        <_>
          <internalNodes>
            0 -1 488 1.0472558438777924e-001</internalNodes>
          <leafValues>
            2.3814039304852486e-002 -6.7641496658325195e-001</leafValues></_>
        <_>
          <internalNodes>
            0 -1 2 6.7409793846309185e-003</internalNodes>
          <leafValues>
            8.2682669162750244e-002 -2.1810680627822876e-001</leafValues></_>
        <_>
          <internalNodes>
            0 -1 136 3.9489649236202240e-002</internalNodes>
          <leafValues>
            -7.7611617743968964e-002 2.8769579529762268e-001</leafValues></_>
        <_>
          <internalNodes>
            0 -1 150 5.1929302513599396e-002</internalNodes>
          <leafValues>
            -6.0577675700187683e-002 3.0215781927108765e-001</leafValues></_>
        <_>
          <internalNodes>
            0 -1 5 1.5380430221557617e-001</internalNodes>
          <leafValues>
            3.3619999885559082e-002 -6.0224598646163940e-001</leafValues></_>
        <_>
          <internalNodes>
            0 -1 353 4.1714761755429208e-004</internalNodes>
          <leafValues>
            2.6426866650581360e-001 -7.0779606699943542e-002</leafValues></_>
        <_>
          <internalNodes>
            0 -1 414 2.7481291443109512e-002</internalNodes>
          <leafValues>
            4.6554159373044968e-002 -3.8021874427795410e-001</leafValues></_>
        <_>
          <internalNodes>
            0 -1 606 3.3445209264755249e-002</internalNodes>
          <leafValues>
            -2.2363924980163574e-001 7.6536722481250763e-002</leafValues></_>
        <_>
          <internalNodes>
            0 -1 17 1.0084168054163456e-002</internalNodes>
          <leafValues>
            -1.8031656742095947e-001 1.1529473215341568e-001</leafValues></_>
        <_>
          <internalNodes>
            0 -1 256 7.9178482294082642e-002</internalNodes>
          <leafValues>
            -3.3367358148097992e-002 5.1692146062850952e-001</leafValues></_>
        <_>
          <internalNodes>
            0 -1 588 3.8054495234973729e-004</internalNodes>
          <leafValues>
            5.9092086553573608e-001 -2.6715343818068504e-002</leafValues></_>
        <_>
          <internalNodes>
            0 -1 182 3.2327853143215179e-002</internalNodes>
          <leafValues>
            -5.1475159823894501e-002 3.2870689034461975e-001</leafValues></_>
        <_>
          <internalNodes>
            0 -1 128 1.9245620816946030e-002</internalNodes>
          <leafValues>
            -2.0646813511848450e-001 8.6097262799739838e-002</leafValues></_>
        <_>
          <internalNodes>
            0 -1 512 4.8218556912615895e-004</internalNodes>
          <leafValues>
            -3.4176373481750488e-001 5.5475972592830658e-002</leafValues></_>
        <_>
          <internalNodes>
            0 -1 111 4.2279934859834611e-004</internalNodes>
          <leafValues>
            2.9809492826461792e-001 -6.2092553824186325e-002</leafValues></_>
        <_>
          <internalNodes>
            0 -1 115 1.0458870232105255e-001</internalNodes>
          <leafValues>
            2.5202449411153793e-002 -6.6289991140365601e-001</leafValues></_>
        <_>
          <internalNodes>
            0 -1 202 3.8486305857077241e-004</internalNodes>
          <leafValues>
            2.5567001104354858e-001 -6.8288825452327728e-002</leafValues></_>
        <_>
          <internalNodes>
            0 -1 133 3.5741235478781164e-005</internalNodes>
          <leafValues>
            -3.2810908555984497e-001 5.4083190858364105e-002</leafValues></_>
        <_>
          <internalNodes>
            0 -1 14 3.4867195063270628e-004</internalNodes>
          <leafValues>
            2.3635970056056976e-001 -1.0063760727643967e-001</leafValues></_>
        <_>
          <internalNodes>
            0 -1 431 3.3423133572796360e-005</internalNodes>
          <leafValues>
            -5.0409609079360962e-001 3.8345769047737122e-002</leafValues></_>
        <_>
          <internalNodes>
            0 -1 60 3.2252888195216656e-004</internalNodes>
          <leafValues>
            2.3167759180068970e-001 -8.7518118321895599e-002</leafValues></_>
        <_>
          <internalNodes>
            0 -1 483 1.3525596261024475e-001</internalNodes>
          <leafValues>
            3.0709845945239067e-002 -6.4610588550567627e-001</leafValues></_>
        <_>
          <internalNodes>
            0 -1 252 1.4335799217224121e-001</internalNodes>
          <leafValues>
            3.7858642637729645e-002 -3.8261401653289795e-001</leafValues></_>
        <_>
          <internalNodes>
            0 -1 124 9.0570986270904541e-002</internalNodes>
          <leafValues>
            -1.0178336501121521e-001 1.9292917847633362e-001</leafValues></_>
        <_>
          <internalNodes>
            0 -1 543 1.1273586750030518e-001</internalNodes>
          <leafValues>
            6.5310537815093994e-002 -2.6744222640991211e-001</leafValues></_>
        <_>
          <internalNodes>
            0 -1 163 2.2852709516882896e-002</internalNodes>
          <leafValues>
            -1.6733565926551819e-001 8.6566112935543060e-002</leafValues></_>
        <_>
          <internalNodes>
            0 -1 302 1.1515347659587860e-001</internalNodes>
          <leafValues>
            -1.7111632972955704e-002 8.5979890823364258e-001</leafValues></_></weakClassifiers></_>
    <!-- stage 18 -->
    <_>
      <maxWeakCount>77</maxWeakCount>
      <stageThreshold>-6.4782887697219849e-002</stageThreshold>
      <weakClassifiers>
        <_>
          <internalNodes>
            0 -1 257 2.6139259338378906e-001</internalNodes>
          <leafValues>
            8.9788711071014404e-001 -3.4782609343528748e-001</leafValues></_>
        <_>
          <internalNodes>
            0 -1 333 4.7091147280298173e-004</internalNodes>
          <leafValues>
            8.2635164260864258e-001 3.3188384771347046e-001</leafValues></_>
        <_>
          <internalNodes>
            0 -1 24 7.0176628651097417e-004</internalNodes>
          <leafValues>
            3.2525411248207092e-001 -2.2391945123672485e-001</leafValues></_>
        <_>
          <internalNodes>
            0 -1 367 7.3351203463971615e-003</internalNodes>
          <leafValues>
            2.7039018273353577e-001 -3.2259330153465271e-001</leafValues></_>
        <_>
          <internalNodes>
            0 -1 260 3.9217993617057800e-003</internalNodes>
          <leafValues>
            2.1248358488082886e-001 -2.7257615327835083e-001</leafValues></_>
        <_>
          <internalNodes>
            0 -1 574 4.5207971706986427e-003</internalNodes>
          <leafValues>
            -4.8293432593345642e-001 9.1790400445461273e-002</leafValues></_>
        <_>
          <internalNodes>
            0 -1 71 3.1726053566671908e-004</internalNodes>
          <leafValues>
            3.2720682024955750e-001 -1.4088721573352814e-001</leafValues></_>
        <_>
          <internalNodes>
            0 -1 423 4.3037151917815208e-003</internalNodes>
          <leafValues>
            -5.1783329248428345e-001 9.2689476907253265e-002</leafValues></_>
        <_>
          <internalNodes>
            0 -1 293 3.7757158861495554e-004</internalNodes>
          <leafValues>
            4.2549365758895874e-001 -1.1209058761596680e-001</leafValues></_>
        <_>
          <internalNodes>
            0 -1 656 1.7906051361933351e-003</internalNodes>
          <leafValues>
            -3.4046995639801025e-001 1.3152500987052917e-001</leafValues></_>
        <_>
          <internalNodes>
            0 -1 478 2.7229793369770050e-002</internalNodes>
          <leafValues>
            -1.7269907891750336e-001 2.7086630463600159e-001</leafValues></_>
        <_>
          <internalNodes>
            0 -1 138 3.0947261257097125e-004</internalNodes>
          <leafValues>
            2.8277903795242310e-001 -1.3153800368309021e-001</leafValues></_>
        <_>
          <internalNodes>
            0 -1 468 2.0286800339818001e-002</internalNodes>
          <leafValues>
            1.0630997270345688e-001 -4.0576151013374329e-001</leafValues></_>
        <_>
          <internalNodes>
            0 -1 340 5.7556010782718658e-002</internalNodes>
          <leafValues>
            -1.9362239539623260e-001 1.8013207614421844e-001</leafValues></_>
        <_>
          <internalNodes>
            0 -1 381 5.9307374060153961e-002</internalNodes>
          <leafValues>
            -8.9740976691246033e-002 3.8772752881050110e-001</leafValues></_>
        <_>
          <internalNodes>
            0 -1 10 1.8164128065109253e-002</internalNodes>
          <leafValues>
            -2.3454456031322479e-001 1.4442773163318634e-001</leafValues></_>
        <_>
          <internalNodes>
            0 -1 29 1.1928534135222435e-002</internalNodes>
          <leafValues>
            2.4746082723140717e-001 -1.3190242648124695e-001</leafValues></_>
        <_>
          <internalNodes>
            0 -1 518 8.4173660725355148e-003</internalNodes>
          <leafValues>
            -2.1586157381534576e-001 1.3978065550327301e-001</leafValues></_>
        <_>
          <internalNodes>
            0 -1 51 2.9280665330588818e-004</internalNodes>
          <leafValues>
            2.4393679201602936e-001 -1.2818562984466553e-001</leafValues></_>
        <_>
          <internalNodes>
            0 -1 386 5.1913904026150703e-003</internalNodes>
          <leafValues>
            -3.1043180823326111e-001 8.5892699658870697e-002</leafValues></_>
        <_>
          <internalNodes>
            0 -1 379 9.4295710325241089e-002</internalNodes>
          <leafValues>
            -1.1438401043415070e-001 2.4497430026531219e-001</leafValues></_>
        <_>
          <internalNodes>
            0 -1 288 8.6657486855983734e-002</internalNodes>
          <leafValues>
            -3.5634562373161316e-002 7.6742297410964966e-001</leafValues></_>
        <_>
          <internalNodes>
            0 -1 140 5.2603878080844879e-002</internalNodes>
          <leafValues>
            -4.7871202230453491e-002 5.4069721698760986e-001</leafValues></_>
        <_>
          <internalNodes>
            0 -1 149 3.0033916234970093e-002</internalNodes>
          <leafValues>
            -9.0364769101142883e-002 3.3162158727645874e-001</leafValues></_>
        <_>
          <internalNodes>
            0 -1 259 3.0284229433164001e-004</internalNodes>
          <leafValues>
            2.2637635469436646e-001 -9.6370607614517212e-002</leafValues></_>
        <_>
          <internalNodes>
            0 -1 141 3.6114379763603210e-002</internalNodes>
          <leafValues>
            -9.9969357252120972e-002 2.7632424235343933e-001</leafValues></_>
        <_>
          <internalNodes>
            0 -1 616 2.9449701309204102e-002</internalNodes>
          <leafValues>
            9.3763887882232666e-002 -3.2419213652610779e-001</leafValues></_>
        <_>
          <internalNodes>
            0 -1 556 4.2010941542685032e-003</internalNodes>
          <leafValues>
            -2.4583949148654938e-001 1.0662454366683960e-001</leafValues></_>
        <_>
          <internalNodes>
            0 -1 109 7.2075426578521729e-004</internalNodes>
          <leafValues>
            3.1049683690071106e-001 -9.3428403139114380e-002</leafValues></_>
        <_>
          <internalNodes>
            0 -1 320 4.2326986789703369e-002</internalNodes>
          <leafValues>
            -4.6388041228055954e-002 5.3929483890533447e-001</leafValues></_>
        <_>
          <internalNodes>
            0 -1 459 3.6771990358829498e-002</internalNodes>
          <leafValues>
            4.8293203115463257e-002 -5.6347906589508057e-001</leafValues></_>
        <_>
          <internalNodes>
            0 -1 534 2.3116713389754295e-002</internalNodes>
          <leafValues>
            -9.2972017824649811e-002 2.5325357913970947e-001</leafValues></_>
        <_>
          <internalNodes>
            0 -1 31 6.0476720333099365e-002</internalNodes>
          <leafValues>
            -7.1082182228565216e-002 3.3627438545227051e-001</leafValues></_>
        <_>
          <internalNodes>
            0 -1 388 8.2835540175437927e-002</internalNodes>
          <leafValues>
            3.1195269897580147e-002 -7.4563688039779663e-001</leafValues></_>
        <_>
          <internalNodes>
            0 -1 65 6.5419171005487442e-004</internalNodes>
          <leafValues>
            1.9875787198543549e-001 -1.2059707939624786e-001</leafValues></_>
        <_>
          <internalNodes>
            0 -1 438 3.8266898627625778e-005</internalNodes>
          <leafValues>
            -5.9959906339645386e-001 4.4041499495506287e-002</leafValues></_>
        <_>
          <internalNodes>
            0 -1 3 1.9530867575667799e-004</internalNodes>
          <leafValues>
            1.7869494855403900e-001 -1.5658617019653320e-001</leafValues></_>
        <_>
          <internalNodes>
            0 -1 308 6.2478950712829828e-004</internalNodes>
          <leafValues>
            2.9237061738967896e-001 -8.0874703824520111e-002</leafValues></_>
        <_>
          <internalNodes>
            0 -1 486 8.8515169918537140e-003</internalNodes>
          <leafValues>
            -3.0872702598571777e-001 9.5726683735847473e-002</leafValues></_>
        <_>
          <internalNodes>
            0 -1 654 6.2858930323272943e-004</internalNodes>
          <leafValues>
            -3.3638951182365417e-001 7.0088967680931091e-002</leafValues></_>
        <_>
          <internalNodes>
            0 -1 621 2.2031160071492195e-002</internalNodes>
          <leafValues>
            8.4931895136833191e-002 -3.4291309118270874e-001</leafValues></_>
        <_>
          <internalNodes>
            0 -1 280 5.6581944227218628e-003</internalNodes>
          <leafValues>
            1.8211898207664490e-001 -1.3784171640872955e-001</leafValues></_>
        <_>
          <internalNodes>
            0 -1 585 1.7221337184309959e-002</internalNodes>
          <leafValues>
            -4.2791068553924561e-001 5.5532094091176987e-002</leafValues></_>
        <_>
          <internalNodes>
            0 -1 525 1.7434459924697876e-001</internalNodes>
          <leafValues>
            2.7930125594139099e-002 -6.7745411396026611e-001</leafValues></_>
        <_>
          <internalNodes>
            0 -1 413 1.9330035895109177e-002</internalNodes>
          <leafValues>
            6.9410033524036407e-002 -3.2652539014816284e-001</leafValues></_>
        <_>
          <internalNodes>
            0 -1 10 2.8633070542127825e-005</internalNodes>
          <leafValues>
            -5.7934510707855225e-001 3.7792067974805832e-002</leafValues></_>
        <_>
          <internalNodes>
            0 -1 365 4.7407549573108554e-004</internalNodes>
          <leafValues>
            2.6982605457305908e-001 -8.5752010345458984e-002</leafValues></_>
        <_>
          <internalNodes>
            0 -1 557 2.3319364991039038e-003</internalNodes>
          <leafValues>
            -3.0589011311531067e-001 9.2902787029743195e-002</leafValues></_>
        <_>
          <internalNodes>
            0 -1 90 6.6481530666351318e-002</internalNodes>
          <leafValues>
            -5.9579227119684219e-002 3.3963170647621155e-001</leafValues></_>
        <_>
          <internalNodes>
            0 -1 329 1.6385622322559357e-002</internalNodes>
          <leafValues>
            1.2555775046348572e-001 -1.7446377873420715e-001</leafValues></_>
        <_>
          <internalNodes>
            0 -1 613 7.8335590660572052e-004</internalNodes>
          <leafValues>
            -6.3428008556365967e-001 3.2901208847761154e-002</leafValues></_>
        <_>
          <internalNodes>
            0 -1 295 8.6315553635358810e-003</internalNodes>
          <leafValues>
            1.9069935381412506e-001 -1.1708873510360718e-001</leafValues></_>
        <_>
          <internalNodes>
            0 -1 301 7.0191480219364166e-002</internalNodes>
          <leafValues>
            3.9496775716543198e-002 -6.0169863700866699e-001</leafValues></_>
        <_>
          <internalNodes>
            0 -1 515 1.5444146096706390e-001</internalNodes>
          <leafValues>
            4.4275488704442978e-002 -4.7549101710319519e-001</leafValues></_>
        <_>
          <internalNodes>
            0 -1 640 5.6511066854000092e-002</internalNodes>
          <leafValues>
            -1.4227209985256195e-001 1.4834091067314148e-001</leafValues></_>
        <_>
          <internalNodes>
            0 -1 152 1.2992471456527710e-002</internalNodes>
          <leafValues>
            -1.7271985113620758e-001 1.4353606104850769e-001</leafValues></_>
        <_>
          <internalNodes>
            0 -1 159 8.2170031964778900e-004</internalNodes>
          <leafValues>
            3.8676273822784424e-001 -7.0231683552265167e-002</leafValues></_>
        <_>
          <internalNodes>
            0 -1 38 6.3833047170192003e-004</internalNodes>
          <leafValues>
            2.0136344432830811e-001 -9.6515312790870667e-002</leafValues></_>
        <_>
          <internalNodes>
            0 -1 392 3.5610879422165453e-005</internalNodes>
          <leafValues>
            -3.0512681603431702e-001 7.8461669385433197e-002</leafValues></_>
        <_>
          <internalNodes>
            0 -1 1 7.6721422374248505e-004</internalNodes>
          <leafValues>
            1.8860840797424316e-001 -1.2845361232757568e-001</leafValues></_>
        <_>
          <internalNodes>
            0 -1 481 1.0227823629975319e-002</internalNodes>
          <leafValues>
            -1.9723601639270782e-001 1.2630355358123779e-001</leafValues></_>
        <_>
          <internalNodes>
            0 -1 418 7.0724457502365112e-002</internalNodes>
          <leafValues>
            5.6375008076429367e-002 -4.2999756336212158e-001</leafValues></_>
        <_>
          <internalNodes>
            0 -1 572 1.5107693150639534e-002</internalNodes>
          <leafValues>
            -1.3022971153259277e-001 1.5027359127998352e-001</leafValues></_>
        <_>
          <internalNodes>
            0 -1 111 5.4795085452497005e-004</internalNodes>
          <leafValues>
            2.9487025737762451e-001 -6.8414092063903809e-002</leafValues></_>
        <_>
          <internalNodes>
            0 -1 450 1.1731232516467571e-003</internalNodes>
          <leafValues>
            -4.6820256114006042e-001 4.7472413629293442e-002</leafValues></_>
        <_>
          <internalNodes>
            0 -1 366 2.7029481716454029e-003</internalNodes>
          <leafValues>
            3.3682116866111755e-001 -6.1130240559577942e-002</leafValues></_>
        <_>
          <internalNodes>
            0 -1 411 1.4404913783073425e-001</internalNodes>
          <leafValues>
            2.2637737914919853e-002 -8.5865634679794312e-001</leafValues></_>
        <_>
          <internalNodes>
            0 -1 45 1.8997434526681900e-002</internalNodes>
          <leafValues>
            8.5405409336090088e-002 -2.1980053186416626e-001</leafValues></_>
        <_>
          <internalNodes>
            0 -1 537 1.5806069970130920e-001</internalNodes>
          <leafValues>
            4.1825689375400543e-002 -5.0177377462387085e-001</leafValues></_>
        <_>
          <internalNodes>
            0 -1 36 9.0548617299646139e-004</internalNodes>
          <leafValues>
            3.4862646460533142e-001 -5.9857215732336044e-002</leafValues></_>
        <_>
          <internalNodes>
            0 -1 449 5.6656852364540100e-002</internalNodes>
          <leafValues>
            2.4752600118517876e-002 -8.1645506620407104e-001</leafValues></_>
        <_>
          <internalNodes>
            0 -1 644 4.0095187723636627e-002</internalNodes>
          <leafValues>
            -4.0403176099061966e-002 5.7512998580932617e-001</leafValues></_>
        <_>
          <internalNodes>
            0 -1 216 1.9657766097225249e-004</internalNodes>
          <leafValues>
            -6.8906539678573608e-001 3.0861521139740944e-002</leafValues></_>
        <_>
          <internalNodes>
            0 -1 64 7.2283728513866663e-004</internalNodes>
          <leafValues>
            2.3713305592536926e-001 -8.9545115828514099e-002</leafValues></_>
        <_>
          <internalNodes>
            0 -1 516 2.7583756018429995e-003</internalNodes>
          <leafValues>
            -5.0989085435867310e-001 4.0925867855548859e-002</leafValues></_>
        <_>
          <internalNodes>
            0 -1 324 3.8317635655403137e-002</internalNodes>
          <leafValues>
            -4.7454860061407089e-002 4.4381552934646606e-001</leafValues></_>
        <_>
          <internalNodes>
            0 -1 49 8.4219977725297213e-004</internalNodes>
          <leafValues>
            2.4167996644973755e-001 -7.0532962679862976e-002</leafValues></_></weakClassifiers></_>
    <!-- stage 19 -->
    <_>
      <maxWeakCount>85</maxWeakCount>
      <stageThreshold>-6.8827755749225616e-002</stageThreshold>
      <weakClassifiers>
        <_>
          <internalNodes>
            0 -1 469 6.2848314642906189e-002</internalNodes>
          <leafValues>
            9.0053439140319824e-001 3.2258063554763794e-002</leafValues></_>
        <_>
          <internalNodes>
            0 -1 207 2.4972041137516499e-004</internalNodes>
          <leafValues>
            8.2230591773986816e-001 3.0445024371147156e-001</leafValues></_>
        <_>
          <internalNodes>
            0 -1 67 6.5173178911209106e-002</internalNodes>
          <leafValues>
            -1.4071142673492432e-001 3.9211577177047729e-001</leafValues></_>
        <_>
          <internalNodes>
            0 -1 278 2.8067309176549315e-004</internalNodes>
          <leafValues>
            3.9080518484115601e-001 -2.0491692423820496e-001</leafValues></_>
        <_>
          <internalNodes>
            0 -1 574 1.1851326562464237e-002</internalNodes>
          <leafValues>
            -3.5558241605758667e-001 1.3616800308227539e-001</leafValues></_>
        <_>
          <internalNodes>
            0 -1 3 1.2451747898012400e-003</internalNodes>
          <leafValues>
            1.7646083235740662e-001 -3.2852348685264587e-001</leafValues></_>
        <_>
          <internalNodes>
            0 -1 455 3.6390133202075958e-002</internalNodes>
          <leafValues>
            1.2713876366615295e-001 -5.3206998109817505e-001</leafValues></_>
        <_>
          <internalNodes>
            0 -1 638 3.1770683825016022e-002</internalNodes>
          <leafValues>
            5.3908117115497589e-002 -5.7148039340972900e-001</leafValues></_>
        <_>
          <internalNodes>
            0 -1 9 1.9362837076187134e-002</internalNodes>
          <leafValues>
            -2.2546246647834778e-001 1.7355041205883026e-001</leafValues></_>
        <_>
          <internalNodes>
            0 -1 84 4.8381116357631981e-004</internalNodes>
          <leafValues>
            2.6850125193595886e-001 -1.3909833133220673e-001</leafValues></_>
        <_>
          <internalNodes>
            0 -1 139 1.1165624856948853e-001</internalNodes>
          <leafValues>
            6.2036860734224319e-002 -5.7017558813095093e-001</leafValues></_>
        <_>
          <internalNodes>
            0 -1 580 5.5401943624019623e-002</internalNodes>
          <leafValues>
            -1.0440964996814728e-001 3.6237460374832153e-001</leafValues></_>
        <_>
          <internalNodes>
            0 -1 280 4.9244547262787819e-003</internalNodes>
          <leafValues>
            2.2029455006122589e-001 -1.6369706392288208e-001</leafValues></_>
        <_>
          <internalNodes>
            0 -1 478 1.7236995045095682e-003</internalNodes>
          <leafValues>
            -4.6756389737129211e-001 6.8916834890842438e-002</leafValues></_>
        <_>
          <internalNodes>
            0 -1 2 4.1197953396476805e-004</internalNodes>
          <leafValues>
            1.8497055768966675e-001 -2.4232834577560425e-001</leafValues></_>
        <_>
          <internalNodes>
            0 -1 330 3.7143682129681110e-003</internalNodes>
          <leafValues>
            -6.6567379236221313e-001 4.9581311643123627e-002</leafValues></_>
        <_>
          <internalNodes>
            0 -1 123 1.2930703163146973e-001</internalNodes>
          <leafValues>
            -4.8724792897701263e-002 7.7921658754348755e-001</leafValues></_>
        <_>
          <internalNodes>
            0 -1 174 1.9534109742380679e-004</internalNodes>
          <leafValues>
            4.0451425313949585e-001 -6.6419921815395355e-002</leafValues></_>
        <_>
          <internalNodes>
            0 -1 411 4.0243361145257950e-003</internalNodes>
          <leafValues>
            -3.6129957437515259e-001 1.0021965950727463e-001</leafValues></_>
        <_>
          <internalNodes>
            0 -1 352 6.6015304764732718e-004</internalNodes>
          <leafValues>
            3.7631359696388245e-001 -8.4113985300064087e-002</leafValues></_>
        <_>
          <internalNodes>
            0 -1 12 5.7629827642813325e-004</internalNodes>
          <leafValues>
            2.1933026611804962e-001 -1.1846500635147095e-001</leafValues></_>
        <_>
          <internalNodes>
            0 -1 510 5.2902908064424992e-003</internalNodes>
          <leafValues>
            -2.8986233472824097e-001 9.4745092093944550e-002</leafValues></_>
        <_>
          <internalNodes>
            0 -1 31 2.5831487029790878e-002</internalNodes>
          <leafValues>
            -1.6726827621459961e-001 1.6735945641994476e-001</leafValues></_>
        <_>
          <internalNodes>
            0 -1 420 8.3153601735830307e-005</internalNodes>
          <leafValues>
            -6.2287402153015137e-001 4.2831659317016602e-002</leafValues></_>
        <_>
          <internalNodes>
            0 -1 98 9.8120770417153835e-004</internalNodes>
          <leafValues>
            2.9282256960868835e-001 -1.1078822612762451e-001</leafValues></_>
        <_>
          <internalNodes>
            0 -1 209 5.5644392967224121e-002</internalNodes>
          <leafValues>
            -8.2418739795684814e-002 3.1941971182823181e-001</leafValues></_>
        <_>
          <internalNodes>
            0 -1 581 3.5332031548023224e-002</internalNodes>
          <leafValues>
            5.6656260043382645e-002 -4.2917817831039429e-001</leafValues></_>
        <_>
          <internalNodes>
            0 -1 142 3.1341243535280228e-002</internalNodes>
          <leafValues>
            -1.3075454533100128e-001 2.0094940066337585e-001</leafValues></_>
        <_>
          <internalNodes>
            0 -1 467 1.9649680703878403e-002</internalNodes>
          <leafValues>
            8.8893808424472809e-002 -2.5718393921852112e-001</leafValues></_>
        <_>
          <internalNodes>
            0 -1 68 5.0535320769995451e-004</internalNodes>
          <leafValues>
            3.2847580313682556e-001 -7.1441963315010071e-002</leafValues></_>
        <_>
          <internalNodes>
            0 -1 492 7.4050254188477993e-003</internalNodes>
          <leafValues>
            -1.7969152331352234e-001 1.4778842031955719e-001</leafValues></_>
        <_>
          <internalNodes>
            0 -1 466 7.5299445597920567e-005</internalNodes>
          <leafValues>
            -6.1933463811874390e-001 4.6313259750604630e-002</leafValues></_>
        <_>
          <internalNodes>
            0 -1 60 2.9100602841936052e-004</internalNodes>
          <leafValues>
            2.5137132406234741e-001 -1.0728736966848373e-001</leafValues></_>
        <_>
          <internalNodes>
            0 -1 441 2.3325982689857483e-001</internalNodes>
          <leafValues>
            3.5732075572013855e-002 -8.2885068655014038e-001</leafValues></_>
        <_>
          <internalNodes>
            0 -1 131 4.4852819293737411e-002</internalNodes>
          <leafValues>
            -5.6919515132904053e-002 4.2678779363632202e-001</leafValues></_>
        <_>
          <internalNodes>
            0 -1 580 7.3794461786746979e-004</internalNodes>
          <leafValues>
            -6.2477332353591919e-001 4.0163382887840271e-002</leafValues></_>
        <_>
          <internalNodes>
            0 -1 318 7.4994086753576994e-004</internalNodes>
          <leafValues>
            3.6108604073524475e-001 -8.2500070333480835e-002</leafValues></_>
        <_>
          <internalNodes>
            0 -1 195 8.8324435055255890e-003</internalNodes>
          <leafValues>
            -1.4915847778320313e-001 1.6064909100532532e-001</leafValues></_>
        <_>
          <internalNodes>
            0 -1 411 4.1502143722027540e-004</internalNodes>
          <leafValues>
            -3.9041560888290405e-001 6.4447119832038879e-002</leafValues></_>
        <_>
          <internalNodes>
            0 -1 299 1.4049101446289569e-004</internalNodes>
          <leafValues>
            3.9632755517959595e-001 -6.8485230207443237e-002</leafValues></_>
        <_>
          <internalNodes>
            0 -1 634 6.7637994885444641e-002</internalNodes>
          <leafValues>
            2.8313504531979561e-002 -6.7785793542861938e-001</leafValues></_>
        <_>
          <internalNodes>
            0 -1 329 3.6536995321512222e-004</internalNodes>
          <leafValues>
            3.1810924410820007e-001 -7.1395345032215118e-002</leafValues></_>
        <_>
          <internalNodes>
            0 -1 603 4.9411575309932232e-003</internalNodes>
          <leafValues>
            -1.8666777014732361e-001 1.2461955100297928e-001</leafValues></_>
        <_>
          <internalNodes>
            0 -1 610 5.3060390055179596e-002</internalNodes>
          <leafValues>
            4.9756728112697601e-002 -5.1377165317535400e-001</leafValues></_>
        <_>
          <internalNodes>
            0 -1 409 4.8148624598979950e-002</internalNodes>
          <leafValues>
            4.9254745244979858e-002 -3.7919798493385315e-001</leafValues></_>
        <_>
          <internalNodes>
            0 -1 4 1.3173991814255714e-002</internalNodes>
          <leafValues>
            1.1025827378034592e-001 -1.9460403919219971e-001</leafValues></_>
        <_>
          <internalNodes>
            0 -1 270 9.6083758398890495e-003</internalNodes>
          <leafValues>
            1.8685400485992432e-001 -1.1533024162054062e-001</leafValues></_>
        <_>
          <internalNodes>
            0 -1 485 5.0580634706420824e-005</internalNodes>
          <leafValues>
            -4.9560546875000000e-001 5.0233684480190277e-002</leafValues></_>
        <_>
          <internalNodes>
            0 -1 161 6.9047405850142241e-004</internalNodes>
          <leafValues>
            4.1267403960227966e-001 -6.2696218490600586e-002</leafValues></_>
        <_>
          <internalNodes>
            0 -1 520 1.8117925152182579e-002</internalNodes>
          <leafValues>
            -1.1251939833164215e-001 2.1326810121536255e-001</leafValues></_>
        <_>
          <internalNodes>
            0 -1 647 3.2714907079935074e-002</internalNodes>
          <leafValues>
            -2.4039106070995331e-001 9.9060222506523132e-002</leafValues></_>
        <_>
          <internalNodes>
            0 -1 489 1.6346392035484314e-001</internalNodes>
          <leafValues>
            2.3037031292915344e-002 -7.9581040143966675e-001</leafValues></_>
        <_>
          <internalNodes>
            0 -1 456 9.8719775676727295e-002</internalNodes>
          <leafValues>
            -1.0056783258914948e-001 2.4093902111053467e-001</leafValues></_>
        <_>
          <internalNodes>
            0 -1 151 5.9802271425724030e-003</internalNodes>
          <leafValues>
            -3.7528041005134583e-001 5.2668020129203796e-002</leafValues></_>
        <_>
          <internalNodes>
            0 -1 154 9.5210932195186615e-003</internalNodes>
          <leafValues>
            1.4251835644245148e-001 -1.3710629940032959e-001</leafValues></_>
        <_>
          <internalNodes>
            0 -1 480 2.2223554551601410e-002</internalNodes>
          <leafValues>
            -1.1538241058588028e-001 2.4648012220859528e-001</leafValues></_>
        <_>
          <internalNodes>
            0 -1 407 1.3306676410138607e-002</internalNodes>
          <leafValues>
            -1.7294350266456604e-001 1.2189903110265732e-001</leafValues></_>
        <_>
          <internalNodes>
            0 -1 574 4.3395370244979858e-002</internalNodes>
          <leafValues>
            -5.3910195827484131e-002 3.7120181322097778e-001</leafValues></_>
        <_>
          <internalNodes>
            0 -1 535 1.6313444939441979e-004</internalNodes>
          <leafValues>
            4.4264805316925049e-001 -4.4304486364126205e-002</leafValues></_>
        <_>
          <internalNodes>
            0 -1 423 1.4432279858738184e-003</internalNodes>
          <leafValues>
            -4.2329320311546326e-001 4.9772080034017563e-002</leafValues></_>
        <_>
          <internalNodes>
            0 -1 52 5.8724865317344666e-002</internalNodes>
          <leafValues>
            -5.8376614004373550e-002 4.2466023564338684e-001</leafValues></_>
        <_>
          <internalNodes>
            0 -1 111 4.3816207908093929e-003</internalNodes>
          <leafValues>
            1.9941149652004242e-001 -9.7905345261096954e-002</leafValues></_>
        <_>
          <internalNodes>
            0 -1 266 6.1895769089460373e-002</internalNodes>
          <leafValues>
            -3.8205482065677643e-002 5.3278070688247681e-001</leafValues></_>
        <_>
          <internalNodes>
            0 -1 651 6.2571465969085693e-004</internalNodes>
          <leafValues>
            -6.4034777879714966e-001 3.3527661114931107e-002</leafValues></_>
        <_>
          <internalNodes>
            0 -1 234 3.3663801848888397e-002</internalNodes>
          <leafValues>
            -4.7535296529531479e-002 4.2121559381484985e-001</leafValues></_>
        <_>
          <internalNodes>
            0 -1 310 5.8112679980695248e-003</internalNodes>
          <leafValues>
            2.2711117565631866e-001 -8.2549214363098145e-002</leafValues></_>
        <_>
          <internalNodes>
            0 -1 289 3.8710192311555147e-003</internalNodes>
          <leafValues>
            -3.1810152530670166e-001 6.2842734158039093e-002</leafValues></_>
        <_>
          <internalNodes>
            0 -1 255 1.9584700465202332e-002</internalNodes>
          <leafValues>
            -1.1506497859954834e-001 1.6523291170597076e-001</leafValues></_>
        <_>
          <internalNodes>
            0 -1 5 5.6401931215077639e-004</internalNodes>
          <leafValues>
            2.7107608318328857e-001 -7.4454993009567261e-002</leafValues></_>
        <_>
          <internalNodes>
            0 -1 249 7.1050778031349182e-002</internalNodes>
          <leafValues>
            -4.2052265256643295e-002 4.8831346631050110e-001</leafValues></_>
        <_>
          <internalNodes>
            0 -1 136 1.4994641765952110e-002</internalNodes>
          <leafValues>
            -1.1997969448566437e-001 1.5861283242702484e-001</leafValues></_>
        <_>
          <internalNodes>
            0 -1 346 1.2703044340014458e-003</internalNodes>
          <leafValues>
            2.4031808972358704e-001 -8.0241441726684570e-002</leafValues></_>
        <_>
          <internalNodes>
            0 -1 545 1.2720534577965736e-003</internalNodes>
          <leafValues>
            -3.1960067152976990e-001 6.1323825269937515e-002</leafValues></_>
        <_>
          <internalNodes>
            0 -1 28 6.4446881413459778e-002</internalNodes>
          <leafValues>
            -4.0036160498857498e-002 4.2993551492691040e-001</leafValues></_>
        <_>
          <internalNodes>
            0 -1 418 7.2101250290870667e-002</internalNodes>
          <leafValues>
            4.7379922121763229e-002 -4.0367797017097473e-001</leafValues></_>
        <_>
          <internalNodes>
            0 -1 21 8.1036817282438278e-003</internalNodes>
          <leafValues>
            9.9477365612983704e-002 -1.8171837925910950e-001</leafValues></_>
        <_>
          <internalNodes>
            0 -1 158 4.3081920593976974e-003</internalNodes>
          <leafValues>
            -3.7818577885627747e-001 6.2002543359994888e-002</leafValues></_>
        <_>
          <internalNodes>
            0 -1 630 4.7244109213352203e-002</internalNodes>
          <leafValues>
            -3.7044860422611237e-002 5.3528755903244019e-001</leafValues></_>
        <_>
          <internalNodes>
            0 -1 264 2.3813499137759209e-002</internalNodes>
          <leafValues>
            -9.7062610089778900e-002 1.7800912261009216e-001</leafValues></_>
        <_>
          <internalNodes>
            0 -1 30 3.4622498787939548e-004</internalNodes>
          <leafValues>
            3.7199044227600098e-001 -5.2255332469940186e-002</leafValues></_>
        <_>
          <internalNodes>
            0 -1 538 1.0389119386672974e-002</internalNodes>
          <leafValues>
            -4.5794636011123657e-001 4.4056605547666550e-002</leafValues></_>
        <_>
          <internalNodes>
            0 -1 128 3.5971663892269135e-002</internalNodes>
          <leafValues>
            -1.4691194891929626e-001 1.1974489688873291e-001</leafValues></_>
        <_>
          <internalNodes>
            0 -1 551 4.7557823359966278e-002</internalNodes>
          <leafValues>
            -7.9860806465148926e-002 2.3326018452644348e-001</leafValues></_>
        <_>
          <internalNodes>
            0 -1 53 9.0531393885612488e-002</internalNodes>
          <leafValues>
            -3.5870712250471115e-002 4.7607427835464478e-001</leafValues></_>
        <_>
          <internalNodes>
            0 -1 475 2.5321671273559332e-003</internalNodes>
          <leafValues>
            -3.0662092566490173e-001 6.6881425678730011e-002</leafValues></_></weakClassifiers></_>
    <!-- stage 20 -->
    <_>
      <maxWeakCount>81</maxWeakCount>
      <stageThreshold>-4.6423383057117462e-002</stageThreshold>
      <weakClassifiers>
        <_>
          <internalNodes>
            0 -1 2 5.5774189531803131e-003</internalNodes>
          <leafValues>
            9.2243462800979614e-001 7.1245497465133667e-001</leafValues></_>
        <_>
          <internalNodes>
            0 -1 354 5.3678662516176701e-004</internalNodes>
          <leafValues>
            7.8974801301956177e-001 2.8991973400115967e-001</leafValues></_>
        <_>
          <internalNodes>
            0 -1 37 4.3012891546823084e-004</internalNodes>
          <leafValues>
            6.4809000492095947e-001 -6.2428761273622513e-002</leafValues></_>
        <_>
          <internalNodes>
            0 -1 8 1.8368810415267944e-002</internalNodes>
          <leafValues>
            -2.2029262781143188e-001 2.4015407264232635e-001</leafValues></_>
        <_>
          <internalNodes>
            0 -1 259 2.0924892742186785e-003</internalNodes>
          <leafValues>
            2.3169848322868347e-001 -2.8354579210281372e-001</leafValues></_>
        <_>
          <internalNodes>
            0 -1 528 4.8084430396556854e-002</internalNodes>
          <leafValues>
            -2.7558887004852295e-001 1.9359856843948364e-001</leafValues></_>
        <_>
          <internalNodes>
            0 -1 240 5.8362138224765658e-004</internalNodes>
          <leafValues>
            3.5801357030868530e-001 -1.1412718147039413e-001</leafValues></_>
        <_>
          <internalNodes>
            0 -1 609 1.3573011755943298e-001</internalNodes>
          <leafValues>
            5.6689549237489700e-002 -6.3556963205337524e-001</leafValues></_>
        <_>
          <internalNodes>
            0 -1 23 4.7703526797704399e-004</internalNodes>
          <leafValues>
            1.9492134451866150e-001 -1.7105260491371155e-001</leafValues></_>
        <_>
          <internalNodes>
            0 -1 411 1.5229572309181094e-003</internalNodes>
          <leafValues>
            -4.8787978291511536e-001 1.0577389597892761e-001</leafValues></_>
        <_>
          <internalNodes>
            0 -1 71 6.4307783031836152e-004</internalNodes>
          <leafValues>
            2.5539284944534302e-001 -1.4527890086174011e-001</leafValues></_>
        <_>
          <internalNodes>
            0 -1 633 2.0467303693294525e-001</internalNodes>
          <leafValues>
            4.7353293746709824e-002 -7.4162286520004272e-001</leafValues></_>
        <_>
          <internalNodes>
            0 -1 655 2.8864063322544098e-002</internalNodes>
          <leafValues>
            7.4835903942584991e-002 -4.2064252495765686e-001</leafValues></_>
        <_>
          <internalNodes>
            0 -1 25 1.9597113132476807e-003</internalNodes>
          <leafValues>
            1.6148789227008820e-001 -2.0843034982681274e-001</leafValues></_>
        <_>
          <internalNodes>
            0 -1 496 4.8825450241565704e-002</internalNodes>
          <leafValues>
            5.1344063133001328e-002 -6.3734710216522217e-001</leafValues></_>
        <_>
          <internalNodes>
            0 -1 253 1.0016429238021374e-002</internalNodes>
          <leafValues>
            -2.3489598929882050e-001 1.2910929322242737e-001</leafValues></_>
        <_>
          <internalNodes>
            0 -1 271 4.4510443694889545e-003</internalNodes>
          <leafValues>
            3.1603813171386719e-001 -1.1058660596609116e-001</leafValues></_>
        <_>
          <internalNodes>
            0 -1 464 8.7376363575458527e-002</internalNodes>
          <leafValues>
            4.8228614032268524e-002 -6.4393573999404907e-001</leafValues></_>
        <_>
          <internalNodes>
            0 -1 10 2.8633070542127825e-005</internalNodes>
          <leafValues>
            -6.0630106925964355e-001 4.4636782258749008e-002</leafValues></_>
        <_>
          <internalNodes>
            0 -1 350 4.5180332381278276e-004</internalNodes>
          <leafValues>
            2.8997376561164856e-001 -1.0208360850811005e-001</leafValues></_>
        <_>
          <internalNodes>
            0 -1 330 1.4454661868512630e-003</internalNodes>
          <leafValues>
            -7.6438373327255249e-001 3.7377141416072845e-002</leafValues></_>
        <_>
          <internalNodes>
            0 -1 518 1.3154171407222748e-002</internalNodes>
          <leafValues>
            -1.8719725310802460e-001 1.6725037992000580e-001</leafValues></_>
        <_>
          <internalNodes>
            0 -1 96 6.6878303885459900e-002</internalNodes>
          <leafValues>
            -8.2940638065338135e-002 3.8988283276557922e-001</leafValues></_>
        <_>
          <internalNodes>
            0 -1 452 6.4691260457038879e-002</internalNodes>
          <leafValues>
            -9.4717264175415039e-002 3.7498572468757629e-001</leafValues></_>
        <_>
          <internalNodes>
            0 -1 274 5.2102945744991302e-002</internalNodes>
          <leafValues>
            -7.8487627208232880e-002 3.4081581234931946e-001</leafValues></_>
        <_>
          <internalNodes>
            0 -1 3 1.1741210473701358e-003</internalNodes>
          <leafValues>
            1.3653831183910370e-001 -1.9720475375652313e-001</leafValues></_>
        <_>
          <internalNodes>
            0 -1 638 5.0559859722852707e-002</internalNodes>
          <leafValues>
            3.2865375280380249e-002 -6.6453015804290771e-001</leafValues></_>
        <_>
          <internalNodes>
            0 -1 399 2.2456187754869461e-002</internalNodes>
          <leafValues>
            -2.0487128198146820e-001 1.4509932696819305e-001</leafValues></_>
        <_>
          <internalNodes>
            0 -1 280 7.4884584173560143e-003</internalNodes>
          <leafValues>
            1.6686904430389404e-001 -1.5692578256130219e-001</leafValues></_>
        <_>
          <internalNodes>
            0 -1 573 1.4685319038107991e-003</internalNodes>
          <leafValues>
            -3.7026831507682800e-001 8.1659995019435883e-002</leafValues></_>
        <_>
          <internalNodes>
            0 -1 181 3.6227144300937653e-004</internalNodes>
          <leafValues>
            3.5770556330680847e-001 -7.2453200817108154e-002</leafValues></_>
        <_>
          <internalNodes>
            0 -1 654 4.4351487304084003e-005</internalNodes>
          <leafValues>
            -3.8581597805023193e-001 5.7932540774345398e-002</leafValues></_>
        <_>
          <internalNodes>
            0 -1 347 1.8525104969739914e-003</internalNodes>
          <leafValues>
            2.6789653301239014e-001 -9.2617683112621307e-002</leafValues></_>
        <_>
          <internalNodes>
            0 -1 57 1.0520002251723781e-004</internalNodes>
          <leafValues>
            -7.3032289743423462e-001 3.0010392889380455e-002</leafValues></_>
        <_>
          <internalNodes>
            0 -1 256 7.1837320923805237e-002</internalNodes>
          <leafValues>
            -5.3407952189445496e-002 4.8346874117851257e-001</leafValues></_>
        <_>
          <internalNodes>
            0 -1 85 5.0795340212062001e-004</internalNodes>
          <leafValues>
            2.8797450661659241e-001 -7.5957365334033966e-002</leafValues></_>
        <_>
          <internalNodes>
            0 -1 435 6.6568914917297661e-005</internalNodes>
          <leafValues>
            -6.7063301801681519e-001 3.2139454036951065e-002</leafValues></_>
        <_>
          <internalNodes>
            0 -1 7 8.5359826683998108e-002</internalNodes>
          <leafValues>
            -5.2577611058950424e-002 4.4679865241050720e-001</leafValues></_>
        <_>
          <internalNodes>
            0 -1 521 1.1586477980017662e-002</internalNodes>
          <leafValues>
            -1.4105844497680664e-001 1.6745720803737640e-001</leafValues></_>
        <_>
          <internalNodes>
            0 -1 38 6.9371890276670456e-004</internalNodes>
          <leafValues>
            2.1762150526046753e-001 -1.0590501874685287e-001</leafValues></_>
        <_>
          <internalNodes>
            0 -1 339 4.6312827616930008e-002</internalNodes>
          <leafValues>
            -8.7704762816429138e-002 2.7573820948600769e-001</leafValues></_>
        <_>
          <internalNodes>
            0 -1 5 1.3759908080101013e-001</internalNodes>
          <leafValues>
            4.4754590839147568e-002 -5.2071774005889893e-001</leafValues></_>
        <_>
          <internalNodes>
            0 -1 283 4.4911604374647141e-002</internalNodes>
          <leafValues>
            -1.3237340748310089e-001 1.7085696756839752e-001</leafValues></_>
        <_>
          <internalNodes>
            0 -1 576 1.3226190209388733e-001</internalNodes>
          <leafValues>
            4.6738430857658386e-002 -5.0779163837432861e-001</leafValues></_>
        <_>
          <internalNodes>
            0 -1 307 3.5204889718443155e-004</internalNodes>
          <leafValues>
            2.6120290160179138e-001 -8.5176929831504822e-002</leafValues></_>
        <_>
          <internalNodes>
            0 -1 615 9.6538697835057974e-004</internalNodes>
          <leafValues>
            -3.3296272158622742e-001 6.7637108266353607e-002</leafValues></_>
        <_>
          <internalNodes>
            0 -1 15 5.0361722707748413e-002</internalNodes>
          <leafValues>
            -6.0037381947040558e-002 3.3460512757301331e-001</leafValues></_>
        <_>
          <internalNodes>
            0 -1 33 4.8366159200668335e-002</internalNodes>
          <leafValues>
            -8.0279737710952759e-002 2.6361504197120667e-001</leafValues></_>
        <_>
          <internalNodes>
            0 -1 110 3.6827176809310913e-003</internalNodes>
          <leafValues>
            1.6995067894458771e-001 -1.2163801491260529e-001</leafValues></_>
        <_>
          <internalNodes>
            0 -1 403 6.4765982329845428e-002</internalNodes>
          <leafValues>
            2.1411292254924774e-002 -8.4350442886352539e-001</leafValues></_>
        <_>
          <internalNodes>
            0 -1 1 1.5388061292469501e-003</internalNodes>
          <leafValues>
            1.4114896953105927e-001 -1.4405451714992523e-001</leafValues></_>
        <_>
          <internalNodes>
            0 -1 391 2.1928433852735907e-005</internalNodes>
          <leafValues>
            -3.3232542872428894e-001 6.3276708126068115e-002</leafValues></_>
        <_>
          <internalNodes>
            0 -1 20 2.7059514541178942e-003</internalNodes>
          <leafValues>
            1.7918135225772858e-001 -1.1854551732540131e-001</leafValues></_>
        <_>
          <internalNodes>
            0 -1 254 4.0897417813539505e-002</internalNodes>
          <leafValues>
            -9.5977924764156342e-002 2.2037835419178009e-001</leafValues></_>
        <_>
          <internalNodes>
            0 -1 95 8.8083878159523010e-002</internalNodes>
          <leafValues>
            2.9101274907588959e-002 -6.6089820861816406e-001</leafValues></_>
        <_>
          <internalNodes>
            0 -1 291 6.3180178403854370e-002</internalNodes>
          <leafValues>
            -4.3009098619222641e-002 4.6619036793708801e-001</leafValues></_>
        <_>
          <internalNodes>
            0 -1 614 3.8330078125000000e-002</internalNodes>
          <leafValues>
            -1.7547097802162170e-001 1.0850317776203156e-001</leafValues></_>
        <_>
          <internalNodes>
            0 -1 219 2.3092773556709290e-001</internalNodes>
          <leafValues>
            2.7464846149086952e-002 -6.3190060853958130e-001</leafValues></_>
        <_>
          <internalNodes>
            0 -1 590 3.1970784068107605e-002</internalNodes>
          <leafValues>
            -1.8643137812614441e-001 9.8637834191322327e-002</leafValues></_>
        <_>
          <internalNodes>
            0 -1 552 1.7859025299549103e-001</internalNodes>
          <leafValues>
            3.3995293080806732e-002 -5.4048800468444824e-001</leafValues></_>
        <_>
          <internalNodes>
            0 -1 205 3.6287741386331618e-004</internalNodes>
          <leafValues>
            3.5700726509094238e-001 -6.2240689992904663e-002</leafValues></_>
        <_>
          <internalNodes>
            0 -1 560 5.6430790573358536e-003</internalNodes>
          <leafValues>
            -5.9627997875213623e-001 2.9475253075361252e-002</leafValues></_>
        <_>
          <internalNodes>
            0 -1 130 1.5469942241907120e-002</internalNodes>
          <leafValues>
            -1.3080206513404846e-001 1.4083136618137360e-001</leafValues></_>
        <_>
          <internalNodes>
            0 -1 359 2.6888801949098706e-004</internalNodes>
          <leafValues>
            2.6588240265846252e-001 -6.6215030848979950e-002</leafValues></_>
        <_>
          <internalNodes>
            0 -1 348 8.5214211139827967e-004</internalNodes>
          <leafValues>
            -6.7887008190155029e-001 3.0587369576096535e-002</leafValues></_>
        <_>
          <internalNodes>
            0 -1 494 1.3518849387764931e-002</internalNodes>
          <leafValues>
            -2.3724989593029022e-001 7.2443276643753052e-002</leafValues></_>
        <_>
          <internalNodes>
            0 -1 486 2.4476913735270500e-002</internalNodes>
          <leafValues>
            -1.3248476386070251e-001 1.5472719073295593e-001</leafValues></_>
        <_>
          <internalNodes>
            0 -1 99 5.4894364438951015e-004</internalNodes>
          <leafValues>
            2.0646466314792633e-001 -8.3392836153507233e-002</leafValues></_>
        <_>
          <internalNodes>
            0 -1 526 9.4043125864118338e-004</internalNodes>
          <leafValues>
            -3.0436310172080994e-001 6.0867976397275925e-002</leafValues></_>
        <_>
          <internalNodes>
            0 -1 185 1.2279300391674042e-001</internalNodes>
          <leafValues>
            -2.1557610481977463e-002 7.5467121601104736e-001</leafValues></_>
        <_>
          <internalNodes>
            0 -1 637 1.8347188830375671e-002</internalNodes>
          <leafValues>
            9.1392412781715393e-002 -1.9443359971046448e-001</leafValues></_>
        <_>
          <internalNodes>
            0 -1 288 6.7616850137710571e-002</internalNodes>
          <leafValues>
            -4.7127075493335724e-002 4.1615685820579529e-001</leafValues></_>
        <_>
          <internalNodes>
            0 -1 293 5.8121465146541595e-002</internalNodes>
          <leafValues>
            -3.8935519754886627e-002 4.2528581619262695e-001</leafValues></_>
        <_>
          <internalNodes>
            0 -1 148 4.3092016130685806e-002</internalNodes>
          <leafValues>
            -3.7690259516239166e-002 4.1012230515480042e-001</leafValues></_>
        <_>
          <internalNodes>
            0 -1 12 5.2223671227693558e-002</internalNodes>
          <leafValues>
            3.4643542021512985e-002 -6.1354726552963257e-001</leafValues></_>
        <_>
          <internalNodes>
            0 -1 102 4.3323680758476257e-002</internalNodes>
          <leafValues>
            -1.4670987427234650e-001 1.1101660132408142e-001</leafValues></_>
        <_>
          <internalNodes>
            0 -1 104 3.9911389350891113e-002</internalNodes>
          <leafValues>
            -4.4856332242488861e-002 3.7445071339607239e-001</leafValues></_>
        <_>
          <internalNodes>
            0 -1 342 5.5243191309273243e-004</internalNodes>
          <leafValues>
            2.8909581899642944e-001 -5.3054831922054291e-002</leafValues></_>
        <_>
          <internalNodes>
            0 -1 587 5.4574228823184967e-002</internalNodes>
          <leafValues>
            5.3582519292831421e-002 -3.3283829689025879e-001</leafValues></_>
        <_>
          <internalNodes>
            0 -1 519 1.5735007822513580e-002</internalNodes>
          <leafValues>
            -1.0586161911487579e-001 1.5166564285755157e-001</leafValues></_>
        <_>
          <internalNodes>
            0 -1 427 7.1858346462249756e-002</internalNodes>
          <leafValues>
            -1.0352555662393570e-001 1.7877861857414246e-001</leafValues></_></weakClassifiers></_>
    <!-- stage 21 -->
    <_>
      <maxWeakCount>87</maxWeakCount>
      <stageThreshold>-7.9560056328773499e-002</stageThreshold>
      <weakClassifiers>
        <_>
          <internalNodes>
            0 -1 2 3.0711565632373095e-003</internalNodes>
          <leafValues>
            9.3075126409530640e-001 7.1732330322265625e-001</leafValues></_>
        <_>
          <internalNodes>
            0 -1 304 5.4068781901150942e-004</internalNodes>
          <leafValues>
            8.4368640184402466e-001 3.3910283446311951e-001</leafValues></_>
        <_>
          <internalNodes>
            0 -1 259 1.8138354644179344e-003</internalNodes>
          <leafValues>
            3.6950892210006714e-001 -1.5040007233619690e-001</leafValues></_>
        <_>
          <internalNodes>
            0 -1 42 7.8998357057571411e-002</internalNodes>
          <leafValues>
            -9.8978221416473389e-002 5.7306396961212158e-001</leafValues></_>
        <_>
          <internalNodes>
            0 -1 472 5.1400367170572281e-002</internalNodes>
          <leafValues>
            -2.1009206771850586e-001 3.0624857544898987e-001</leafValues></_>
        <_>
          <internalNodes>
            0 -1 573 7.3585603386163712e-003</internalNodes>
          <leafValues>
            -2.8531873226165771e-001 1.9124625623226166e-001</leafValues></_>
        <_>
          <internalNodes>
            0 -1 12 9.9132093600928783e-004</internalNodes>
          <leafValues>
            3.1067246198654175e-001 -1.9422468543052673e-001</leafValues></_>
        <_>
          <internalNodes>
            0 -1 367 4.3346441816538572e-004</internalNodes>
          <leafValues>
            3.7030056118965149e-001 -1.3576896488666534e-001</leafValues></_>
        <_>
          <internalNodes>
            0 -1 568 1.1869692243635654e-003</internalNodes>
          <leafValues>
            -6.0501277446746826e-001 7.8563876450061798e-002</leafValues></_>
        <_>
          <internalNodes>
            0 -1 280 6.4054550603032112e-004</internalNodes>
          <leafValues>
            3.4298521280288696e-001 -1.3598711788654327e-001</leafValues></_>
        <_>
          <internalNodes>
            0 -1 219 1.6705697774887085e-001</internalNodes>
          <leafValues>
            7.5322382152080536e-002 -5.1696062088012695e-001</leafValues></_>
        <_>
          <internalNodes>
            0 -1 84 4.3612006120383739e-003</internalNodes>
          <leafValues>
            1.8826535344123840e-001 -2.2081515192985535e-001</leafValues></_>
        <_>
          <internalNodes>
            0 -1 263 1.0321332514286041e-001</internalNodes>
          <leafValues>
            6.9398008286952972e-002 -5.0627410411834717e-001</leafValues></_>
        <_>
          <internalNodes>
            0 -1 622 3.7570953369140625e-002</internalNodes>
          <leafValues>
            4.8997558653354645e-002 -5.9885531663894653e-001</leafValues></_>
        <_>
          <internalNodes>
            0 -1 25 8.8036927627399564e-004</internalNodes>
          <leafValues>
            1.9348143041133881e-001 -1.8035642802715302e-001</leafValues></_>
        <_>
          <internalNodes>
            0 -1 254 3.8501188158988953e-002</internalNodes>
          <leafValues>
            -1.5182557702064514e-001 2.5002288818359375e-001</leafValues></_>
        <_>
          <internalNodes>
            0 -1 116 7.6180428266525269e-002</internalNodes>
          <leafValues>
            -7.2827368974685669e-002 4.6930882334709167e-001</leafValues></_>
        <_>
          <internalNodes>
            0 -1 636 3.1242409022524953e-004</internalNodes>
          <leafValues>
            -7.2108608484268188e-001 4.6868957579135895e-002</leafValues></_>
        <_>
          <internalNodes>
            0 -1 325 4.4212641660124063e-004</internalNodes>
          <leafValues>
            2.9773673415184021e-001 -9.5863230526447296e-002</leafValues></_>
        <_>
          <internalNodes>
            0 -1 500 8.0796226859092712e-002</internalNodes>
          <leafValues>
            3.6993660032749176e-002 -8.1957542896270752e-001</leafValues></_>
        <_>
          <internalNodes>
            0 -1 180 3.1194884330034256e-002</internalNodes>
          <leafValues>
            -9.1902136802673340e-002 3.2065942883491516e-001</leafValues></_>
        <_>
          <internalNodes>
            0 -1 340 2.1026008762419224e-003</internalNodes>
          <leafValues>
            -6.9852989912033081e-001 4.0425457060337067e-002</leafValues></_>
        <_>
          <internalNodes>
            0 -1 536 1.4359226450324059e-002</internalNodes>
          <leafValues>
            -2.5351494550704956e-001 9.1352723538875580e-002</leafValues></_>
        <_>
          <internalNodes>
            0 -1 3 1.6479855403304100e-003</internalNodes>
          <leafValues>
            1.3535219430923462e-001 -2.0252400636672974e-001</leafValues></_>
        <_>
          <internalNodes>
            0 -1 437 3.5588234663009644e-002</internalNodes>
          <leafValues>
            7.1319721639156342e-002 -3.5041075944900513e-001</leafValues></_>
        <_>
          <internalNodes>
            0 -1 216 1.6326382756233215e-001</internalNodes>
          <leafValues>
            6.1670996248722076e-002 -4.0506902337074280e-001</leafValues></_>
        <_>
          <internalNodes>
            0 -1 117 1.2281378731131554e-003</internalNodes>
          <leafValues>
            2.2884050011634827e-001 -1.1428011953830719e-001</leafValues></_>
        <_>
          <internalNodes>
            0 -1 223 2.4791857867967337e-005</internalNodes>
          <leafValues>
            -8.2023108005523682e-001 3.2606832683086395e-002</leafValues></_>
        <_>
          <internalNodes>
            0 -1 40 6.5598986111581326e-004</internalNodes>
          <leafValues>
            4.3321689963340759e-001 -6.9646880030632019e-002</leafValues></_>
        <_>
          <internalNodes>
            0 -1 139 7.9963706433773041e-002</internalNodes>
          <leafValues>
            7.6113671064376831e-002 -3.5713872313499451e-001</leafValues></_>
        <_>
          <internalNodes>
            0 -1 20 1.3411432504653931e-001</internalNodes>
          <leafValues>
            2.2373925894498825e-002 -8.4154993295669556e-001</leafValues></_>
        <_>
          <internalNodes>
            0 -1 331 5.9885159134864807e-004</internalNodes>
          <leafValues>
            2.8341948986053467e-001 -7.5170613825321198e-002</leafValues></_>
        <_>
          <internalNodes>
            0 -1 564 1.4419851358979940e-003</internalNodes>
          <leafValues>
            -3.3212512731552124e-001 7.5710467994213104e-002</leafValues></_>
        <_>
          <internalNodes>
            0 -1 414 3.7689439952373505e-002</internalNodes>
          <leafValues>
            3.7304930388927460e-002 -5.9094381332397461e-001</leafValues></_>
        <_>
          <internalNodes>
            0 -1 283 4.3176360428333282e-002</internalNodes>
          <leafValues>
            -1.3907243311405182e-001 1.6473118960857391e-001</leafValues></_>
        <_>
          <internalNodes>
            0 -1 258 1.2651490978896618e-003</internalNodes>
          <leafValues>
            2.6472598314285278e-001 -9.5089703798294067e-002</leafValues></_>
        <_>
          <internalNodes>
            0 -1 567 1.7621930688619614e-002</internalNodes>
          <leafValues>
            -1.9332994520664215e-001 1.3317809998989105e-001</leafValues></_>
        <_>
          <internalNodes>
            0 -1 128 3.9448961615562439e-005</internalNodes>
          <leafValues>
            -7.1119260787963867e-001 3.0003264546394348e-002</leafValues></_>
        <_>
          <internalNodes>
            0 -1 363 8.6468458175659180e-003</internalNodes>
          <leafValues>
            1.4216247200965881e-001 -1.8076556921005249e-001</leafValues></_>
        <_>
          <internalNodes>
            0 -1 631 4.6429216861724854e-002</internalNodes>
          <leafValues>
            -6.1546191573143005e-002 3.6319133639335632e-001</leafValues></_>
        <_>
          <internalNodes>
            0 -1 406 1.0313363373279572e-001</internalNodes>
          <leafValues>
            -3.5573743283748627e-002 5.8590346574783325e-001</leafValues></_>
        <_>
          <internalNodes>
            0 -1 436 5.2488700021058321e-004</internalNodes>
          <leafValues>
            -2.9752403497695923e-001 7.0298470556735992e-002</leafValues></_>
        <_>
          <internalNodes>
            0 -1 371 1.3267553877085447e-003</internalNodes>
          <leafValues>
            3.6457589268684387e-001 -7.4429400265216827e-002</leafValues></_>
        <_>
          <internalNodes>
            0 -1 431 1.3642667909152806e-004</internalNodes>
          <leafValues>
            -5.5045199394226074e-001 4.3325468897819519e-002</leafValues></_>
        <_>
          <internalNodes>
            0 -1 166 3.5497668432071805e-004</internalNodes>
          <leafValues>
            3.8721430301666260e-001 -6.5170235931873322e-002</leafValues></_>
        <_>
          <internalNodes>
            0 -1 175 1.1499086767435074e-001</internalNodes>
          <leafValues>
            5.6093983352184296e-002 -3.7198156118392944e-001</leafValues></_>
        <_>
          <internalNodes>
            0 -1 78 1.7323091626167297e-002</internalNodes>
          <leafValues>
            1.7223814129829407e-001 -1.0878848284482956e-001</leafValues></_>
        <_>
          <internalNodes>
            0 -1 239 5.9449832886457443e-002</internalNodes>
          <leafValues>
            -7.3975406587123871e-002 2.9743933677673340e-001</leafValues></_>
        <_>
          <internalNodes>
            0 -1 1 6.5849337261170149e-004</internalNodes>
          <leafValues>
            1.7241601645946503e-001 -1.1951970309019089e-001</leafValues></_>
        <_>
          <internalNodes>
            0 -1 392 3.5610879422165453e-005</internalNodes>
          <leafValues>
            -3.3860200643539429e-001 8.7508589029312134e-002</leafValues></_>
        <_>
          <internalNodes>
            0 -1 23 9.2862930614501238e-004</internalNodes>
          <leafValues>
            1.6511391103267670e-001 -1.1327025294303894e-001</leafValues></_>
        <_>
          <internalNodes>
            0 -1 570 1.8648023903369904e-001</internalNodes>
          <leafValues>
            1.9833344966173172e-002 -8.9554584026336670e-001</leafValues></_>
        <_>
          <internalNodes>
            0 -1 151 2.4519862563465722e-005</internalNodes>
          <leafValues>
            -7.7072525024414063e-001 1.6957579180598259e-002</leafValues></_>
        <_>
          <internalNodes>
            0 -1 159 4.7921735676936805e-004</internalNodes>
          <leafValues>
            3.0463463068008423e-001 -6.5819427371025085e-002</leafValues></_>
        <_>
          <internalNodes>
            0 -1 575 8.3197727799415588e-003</internalNodes>
          <leafValues>
            -2.6945742964744568e-001 6.6107280552387238e-002</leafValues></_>
        <_>
          <internalNodes>
            0 -1 56 1.4008262660354376e-003</internalNodes>
          <leafValues>
            2.2084872424602509e-001 -9.1781362891197205e-002</leafValues></_>
        <_>
          <internalNodes>
            0 -1 253 2.4489268660545349e-002</internalNodes>
          <leafValues>
            -1.2578636407852173e-001 1.6654843091964722e-001</leafValues></_>
        <_>
          <internalNodes>
            0 -1 417 8.4439560770988464e-002</internalNodes>
          <leafValues>
            3.5827893763780594e-002 -6.0729849338531494e-001</leafValues></_>
        <_>
          <internalNodes>
            0 -1 260 4.8897002125158906e-004</internalNodes>
          <leafValues>
            1.8242622911930084e-001 -1.0541248321533203e-001</leafValues></_>
        <_>
          <internalNodes>
            0 -1 562 4.2612086981534958e-003</internalNodes>
          <leafValues>
            -2.9841998219490051e-001 6.7343316972255707e-002</leafValues></_>
        <_>
          <internalNodes>
            0 -1 88 2.8892018599435687e-004</internalNodes>
          <leafValues>
            2.5947302579879761e-001 -7.6886110007762909e-002</leafValues></_>
        <_>
          <internalNodes>
            0 -1 410 7.7466317452490330e-003</internalNodes>
          <leafValues>
            -2.3852710425853729e-001 9.4441860914230347e-002</leafValues></_>
        <_>
          <internalNodes>
            0 -1 248 2.2571098059415817e-002</internalNodes>
          <leafValues>
            -7.1524694561958313e-002 2.5096926093101501e-001</leafValues></_>
        <_>
          <internalNodes>
            0 -1 379 7.5055971741676331e-002</internalNodes>
          <leafValues>
            -1.1318656057119370e-001 1.7639738321304321e-001</leafValues></_>
        <_>
          <internalNodes>
            0 -1 351 6.4826324582099915e-002</internalNodes>
          <leafValues>
            -6.5529376268386841e-002 2.6993677020072937e-001</leafValues></_>
        <_>
          <internalNodes>
            0 -1 222 5.7797931134700775e-002</internalNodes>
          <leafValues>
            -3.2063510268926620e-002 5.0423240661621094e-001</leafValues></_>
        <_>
          <internalNodes>
            0 -1 247 6.0974545776844025e-002</internalNodes>
          <leafValues>
            3.3349044620990753e-002 -5.3905731439590454e-001</leafValues></_>
        <_>
          <internalNodes>
            0 -1 8 7.4704758822917938e-002</internalNodes>
          <leafValues>
            -3.9505172520875931e-002 4.8670843243598938e-001</leafValues></_>
        <_>
          <internalNodes>
            0 -1 471 6.6135108470916748e-002</internalNodes>
          <leafValues>
            -1.0746816545724869e-001 1.4894342422485352e-001</leafValues></_>
        <_>
          <internalNodes>
            0 -1 204 1.4222206547856331e-002</internalNodes>
          <leafValues>
            -1.0014389455318451e-001 1.9569359719753265e-001</leafValues></_>
        <_>
          <internalNodes>
            0 -1 465 5.3415976464748383e-002</internalNodes>
          <leafValues>
            -7.1054667234420776e-002 2.6944166421890259e-001</leafValues></_>
        <_>
          <internalNodes>
            0 -1 299 6.1949819792062044e-004</internalNodes>
          <leafValues>
            2.7153813838958740e-001 -5.6570462882518768e-002</leafValues></_>
        <_>
          <internalNodes>
            0 -1 633 1.9198340177536011e-001</internalNodes>
          <leafValues>
            3.0169112607836723e-002 -5.7665359973907471e-001</leafValues></_>
        <_>
          <internalNodes>
            0 -1 55 7.3766537010669708e-002</internalNodes>
          <leafValues>
            1.7654702067375183e-002 -8.3883589506149292e-001</leafValues></_>
        <_>
          <internalNodes>
            0 -1 338 1.4388739364221692e-003</internalNodes>
          <leafValues>
            2.3194870352745056e-001 -7.2498701512813568e-002</leafValues></_>
        <_>
          <internalNodes>
            0 -1 505 7.2217211127281189e-003</internalNodes>
          <leafValues>
            -1.9759763777256012e-001 9.4000153243541718e-002</leafValues></_>
        <_>
          <internalNodes>
            0 -1 342 4.4744164915755391e-004</internalNodes>
          <leafValues>
            2.8899505734443665e-001 -6.0293607413768768e-002</leafValues></_>
        <_>
          <internalNodes>
            0 -1 632 3.7283694837242365e-005</internalNodes>
          <leafValues>
            -7.2457730770111084e-001 2.4808531627058983e-002</leafValues></_>
        <_>
          <internalNodes>
            0 -1 254 6.0415528714656830e-002</internalNodes>
          <leafValues>
            -6.3736349344253540e-002 2.7373185753822327e-001</leafValues></_>
        <_>
          <internalNodes>
            0 -1 2 3.0711565632373095e-003</internalNodes>
          <leafValues>
            1.0115021467208862e-001 -1.7102642357349396e-001</leafValues></_>
        <_>
          <internalNodes>
            0 -1 216 2.8202609973959625e-004</internalNodes>
          <leafValues>
            -7.3579126596450806e-001 2.1584687754511833e-002</leafValues></_>
        <_>
          <internalNodes>
            0 -1 171 3.0861804261803627e-002</internalNodes>
          <leafValues>
            -6.7797891795635223e-002 2.7004817128181458e-001</leafValues></_>
        <_>
          <internalNodes>
            0 -1 15 6.4904384315013885e-002</internalNodes>
          <leafValues>
            -4.5431107282638550e-002 3.5698080062866211e-001</leafValues></_>
        <_>
          <internalNodes>
            0 -1 10 2.8633070542127825e-005</internalNodes>
          <leafValues>
            -4.8981505632400513e-001 3.4173235297203064e-002</leafValues></_>
        <_>
          <internalNodes>
            0 -1 71 6.1765557620674372e-004</internalNodes>
          <leafValues>
            2.0463715493679047e-001 -8.5686229169368744e-002</leafValues></_>
        <_>
          <internalNodes>
            0 -1 184 1.6835203766822815e-001</internalNodes>
          <leafValues>
            3.4264314919710159e-002 -5.5969077348709106e-001</leafValues></_>
        <_>
          <internalNodes>
            0 -1 468 4.6131197450449690e-005</internalNodes>
          <leafValues>
            -2.8469058871269226e-001 5.4473210126161575e-002</leafValues></_></weakClassifiers></_>
    <!-- stage 22 -->
    <_>
      <maxWeakCount>73</maxWeakCount>
      <stageThreshold>-3.6592733114957809e-002</stageThreshold>
      <weakClassifiers>
        <_>
          <internalNodes>
            0 -1 63 7.2323309723287821e-004</internalNodes>
          <leafValues>
            9.7579866647720337e-001 8.3272927999496460e-001</leafValues></_>
        <_>
          <internalNodes>
            0 -1 63 7.2323309723287821e-004</internalNodes>
          <leafValues>
            8.4122848510742188e-001 3.4894743561744690e-001</leafValues></_>
        <_>
          <internalNodes>
            0 -1 355 3.6821444518864155e-004</internalNodes>
          <leafValues>
            5.8545762300491333e-001 -6.7717574536800385e-002</leafValues></_>
        <_>
          <internalNodes>
            0 -1 278 7.1665726136416197e-004</internalNodes>
          <leafValues>
            3.4715628623962402e-001 -2.0299822092056274e-001</leafValues></_>
        <_>
          <internalNodes>
            0 -1 574 9.9072195589542389e-003</internalNodes>
          <leafValues>
            -3.8315308094024658e-001 1.0483734309673309e-001</leafValues></_>
        <_>
          <internalNodes>
            0 -1 117 2.0811564754694700e-003</internalNodes>
          <leafValues>
            2.9312065243721008e-001 -1.8795837461948395e-001</leafValues></_>
        <_>
          <internalNodes>
            0 -1 2 3.2240226864814758e-003</internalNodes>
          <leafValues>
            1.3319016993045807e-001 -3.5676413774490356e-001</leafValues></_>
        <_>
          <internalNodes>
            0 -1 474 7.7434986829757690e-002</internalNodes>
          <leafValues>
            4.6224512159824371e-002 -8.3740258216857910e-001</leafValues></_>
        <_>
          <internalNodes>
            0 -1 8 1.6964338719844818e-002</internalNodes>
          <leafValues>
            -2.3201161623001099e-001 1.6375903785228729e-001</leafValues></_>
        <_>
          <internalNodes>
            0 -1 624 4.6065546572208405e-002</internalNodes>
          <leafValues>
            -1.0730843991041183e-001 3.3786597847938538e-001</leafValues></_>
        <_>
          <internalNodes>
            0 -1 50 5.0035241292789578e-004</internalNodes>
          <leafValues>
            2.6016500592231750e-001 -1.1615386605262756e-001</leafValues></_>
        <_>
          <internalNodes>
            0 -1 480 4.8759251512819901e-005</internalNodes>
          <leafValues>
            -5.6144946813583374e-001 8.5057690739631653e-002</leafValues></_>
        <_>
          <internalNodes>
            0 -1 259 4.3730391189455986e-004</internalNodes>
          <leafValues>
            2.3783349990844727e-001 -1.3585509359836578e-001</leafValues></_>
        <_>
          <internalNodes>
            0 -1 599 3.8516379892826080e-002</internalNodes>
          <leafValues>
            -1.5115375816822052e-001 2.2456973791122437e-001</leafValues></_>
        <_>
          <internalNodes>
            0 -1 46 2.8947069949936122e-005</internalNodes>
          <leafValues>
            -7.6128381490707397e-001 4.5440379530191422e-002</leafValues></_>
        <_>
          <internalNodes>
            0 -1 84 4.5730068814009428e-004</internalNodes>
          <leafValues>
            2.7184110879898071e-001 -1.2918981909751892e-001</leafValues></_>
        <_>
          <internalNodes>
            0 -1 654 1.7396761104464531e-003</internalNodes>
          <leafValues>
            -3.2020127773284912e-001 1.0286574065685272e-001</leafValues></_>
        <_>
          <internalNodes>
            0 -1 352 4.7656433889642358e-004</internalNodes>
          <leafValues>
            4.5591667294502258e-001 -7.6730199158191681e-002</leafValues></_>
        <_>
          <internalNodes>
            0 -1 483 1.4373433589935303e-001</internalNodes>
          <leafValues>
            4.1686210781335831e-002 -7.2553783655166626e-001</leafValues></_>
        <_>
          <internalNodes>
            0 -1 3 1.6036642482504249e-003</internalNodes>
          <leafValues>
            1.2188903242349625e-001 -2.4470372498035431e-001</leafValues></_>
        <_>
          <internalNodes>
            0 -1 340 3.1580924987792969e-002</internalNodes>
          <leafValues>
            -2.8684404492378235e-001 1.1777759343385696e-001</leafValues></_>
        <_>
          <internalNodes>
            0 -1 362 4.2559452354907990e-002</internalNodes>
          <leafValues>
            -1.9950008392333984e-001 1.2731537222862244e-001</leafValues></_>
        <_>
          <internalNodes>
            0 -1 457 4.6724755316972733e-002</internalNodes>
          <leafValues>
            -1.0187081992626190e-001 2.7519196271896362e-001</leafValues></_>
        <_>
          <internalNodes>
            0 -1 536 3.2772339880466461e-002</internalNodes>
          <leafValues>
            -1.3109818100929260e-001 2.1313318610191345e-001</leafValues></_>
        <_>
          <internalNodes>
            0 -1 38 1.4303689822554588e-003</internalNodes>
          <leafValues>
            2.0143139362335205e-001 -1.3809436559677124e-001</leafValues></_>
        <_>
          <internalNodes>
            0 -1 5 7.5530469417572021e-002</internalNodes>
          <leafValues>
            8.7818153202533722e-002 -3.5439378023147583e-001</leafValues></_>
        <_>
          <internalNodes>
            0 -1 158 2.6312271074857563e-005</internalNodes>
          <leafValues>
            -7.2680896520614624e-001 3.3907946199178696e-002</leafValues></_>
        <_>
          <internalNodes>
            0 -1 273 3.8402635254897177e-004</internalNodes>
          <leafValues>
            3.6564061045646667e-001 -7.7840939164161682e-002</leafValues></_>
        <_>
          <internalNodes>
            0 -1 600 3.3323041861876845e-005</internalNodes>
          <leafValues>
            -3.8553559780120850e-001 6.5778747200965881e-002</leafValues></_>
        <_>
          <internalNodes>
            0 -1 621 1.5821566805243492e-002</internalNodes>
          <leafValues>
            1.0581200569868088e-001 -2.5975945591926575e-001</leafValues></_>
        <_>
          <internalNodes>
            0 -1 256 6.6863030195236206e-002</internalNodes>
          <leafValues>
            -5.3555674850940704e-002 4.9997812509536743e-001</leafValues></_>
        <_>
          <internalNodes>
            0 -1 391 7.8652620315551758e-002</internalNodes>
          <leafValues>
            3.9708025753498077e-002 -7.3586356639862061e-001</leafValues></_>
        <_>
          <internalNodes>
            0 -1 49 4.2507525533437729e-002</internalNodes>
          <leafValues>
            -7.1438618004322052e-002 3.8555651903152466e-001</leafValues></_>
        <_>
          <internalNodes>
            0 -1 54 4.4165831059217453e-004</internalNodes>
          <leafValues>
            3.0540552735328674e-001 -8.1651106476783752e-002</leafValues></_>
        <_>
          <internalNodes>
            0 -1 251 2.0155847072601318e-002</internalNodes>
          <leafValues>
            -1.2595734000205994e-001 2.0175404846668243e-001</leafValues></_>
        <_>
          <internalNodes>
            0 -1 467 3.3085480332374573e-002</internalNodes>
          <leafValues>
            5.9294015169143677e-002 -4.7334429621696472e-001</leafValues></_>
        <_>
          <internalNodes>
            0 -1 433 4.4861717469757423e-005</internalNodes>
          <leafValues>
            -3.1445801258087158e-001 7.1049354970455170e-002</leafValues></_>
        <_>
          <internalNodes>
            0 -1 286 5.7154928799718618e-004</internalNodes>
          <leafValues>
            3.2908123731613159e-001 -6.7720532417297363e-002</leafValues></_>
        <_>
          <internalNodes>
            0 -1 486 2.8668038547039032e-002</internalNodes>
          <leafValues>
            -1.3695837557315826e-001 1.9373960793018341e-001</leafValues></_>
        <_>
          <internalNodes>
            0 -1 647 1.4705464243888855e-001</internalNodes>
          <leafValues>
            6.0564205050468445e-002 -4.1147881746292114e-001</leafValues></_>
        <_>
          <internalNodes>
            0 -1 610 5.6497499346733093e-002</internalNodes>
          <leafValues>
            4.5763522386550903e-002 -5.3404450416564941e-001</leafValues></_>
        <_>
          <internalNodes>
            0 -1 630 4.1059233248233795e-002</internalNodes>
          <leafValues>
            -5.9687741100788116e-002 5.5812966823577881e-001</leafValues></_>
        <_>
          <internalNodes>
            0 -1 225 1.0592756792902946e-002</internalNodes>
          <leafValues>
            1.4667701721191406e-001 -1.6183562576770782e-001</leafValues></_>
        <_>
          <internalNodes>
            0 -1 651 1.1721956543624401e-003</internalNodes>
          <leafValues>
            -5.9337532520294189e-001 3.4971479326486588e-002</leafValues></_>
        <_>
          <internalNodes>
            0 -1 375 5.7814584579318762e-004</internalNodes>
          <leafValues>
            3.6684259772300720e-001 -6.7277476191520691e-002</leafValues></_>
        <_>
          <internalNodes>
            0 -1 145 1.7890632152557373e-001</internalNodes>
          <leafValues>
            2.7125559747219086e-002 -8.2420575618743896e-001</leafValues></_>
        <_>
          <internalNodes>
            0 -1 1 4.9341458361595869e-004</internalNodes>
          <leafValues>
            1.6800317168235779e-001 -1.2955264747142792e-001</leafValues></_>
        <_>
          <internalNodes>
            0 -1 255 3.8378380239009857e-002</internalNodes>
          <leafValues>
            -7.2816587984561920e-002 2.9329818487167358e-001</leafValues></_>
        <_>
          <internalNodes>
            0 -1 595 9.1441994300112128e-004</internalNodes>
          <leafValues>
            -5.8028471469879150e-001 3.7588126957416534e-002</leafValues></_>
        <_>
          <internalNodes>
            0 -1 280 3.2396067399531603e-004</internalNodes>
          <leafValues>
            3.1589236855506897e-001 -7.5578734278678894e-002</leafValues></_>
        <_>
          <internalNodes>
            0 -1 485 4.9885583575814962e-004</internalNodes>
          <leafValues>
            -4.8147127032279968e-001 5.6461445987224579e-002</leafValues></_>
        <_>
          <internalNodes>
            0 -1 176 1.5085577033460140e-003</internalNodes>
          <leafValues>
            3.1949141621589661e-001 -8.2403033971786499e-002</leafValues></_>
        <_>
          <internalNodes>
            0 -1 384 2.4732686579227448e-003</internalNodes>
          <leafValues>
            -2.5021871924400330e-001 1.0106988996267319e-001</leafValues></_>
        <_>
          <internalNodes>
            0 -1 241 4.9577698111534119e-002</internalNodes>
          <leafValues>
            -8.1212989985942841e-002 2.6457372307777405e-001</leafValues></_>
        <_>
          <internalNodes>
            0 -1 237 5.7003837078809738e-002</internalNodes>
          <leafValues>
            -8.0312930047512054e-002 2.8781121969223022e-001</leafValues></_>
        <_>
          <internalNodes>
            0 -1 407 6.3150967471301556e-003</internalNodes>
          <leafValues>
            -2.5700226426124573e-001 8.2824282348155975e-002</leafValues></_>
        <_>
          <internalNodes>
            0 -1 331 5.9885159134864807e-004</internalNodes>
          <leafValues>
            4.0840750932693481e-001 -7.4194125831127167e-002</leafValues></_>
        <_>
          <internalNodes>
            0 -1 66 7.7697202563285828e-002</internalNodes>
          <leafValues>
            2.1075770258903503e-002 -9.2630827426910400e-001</leafValues></_>
        <_>
          <internalNodes>
            0 -1 642 9.2963362112641335e-003</internalNodes>
          <leafValues>
            -1.7611947655677795e-001 1.0746414214372635e-001</leafValues></_>
        <_>
          <internalNodes>
            0 -1 335 9.9117364734411240e-003</internalNodes>
          <leafValues>
            1.5860700607299805e-001 -1.6835200786590576e-001</leafValues></_>
        <_>
          <internalNodes>
            0 -1 451 7.1132645010948181e-002</internalNodes>
          <leafValues>
            -1.1929096281528473e-001 1.8369930982589722e-001</leafValues></_>
        <_>
          <internalNodes>
            0 -1 317 1.7877244949340820e-001</internalNodes>
          <leafValues>
            4.0493987500667572e-002 -5.9147387742996216e-001</leafValues></_>
        <_>
          <internalNodes>
            0 -1 32 4.1456289589405060e-002</internalNodes>
          <leafValues>
            -1.6366755962371826e-001 1.4174972474575043e-001</leafValues></_>
        <_>
          <internalNodes>
            0 -1 14 6.5756857395172119e-002</internalNodes>
          <leafValues>
            -2.5951376184821129e-002 7.9999661445617676e-001</leafValues></_>
        <_>
          <internalNodes>
            0 -1 187 4.0992930531501770e-002</internalNodes>
          <leafValues>
            -4.3323159217834473e-002 4.0706577897071838e-001</leafValues></_>
        <_>
          <internalNodes>
            0 -1 325 7.7399966539815068e-004</internalNodes>
          <leafValues>
            3.0253374576568604e-001 -7.0185698568820953e-002</leafValues></_>
        <_>
          <internalNodes>
            0 -1 511 3.2636078540235758e-003</internalNodes>
          <leafValues>
            -2.7513095736503601e-001 9.2692390084266663e-002</leafValues></_>
        <_>
          <internalNodes>
            0 -1 598 4.7638729214668274e-002</internalNodes>
          <leafValues>
            -1.4413064718246460e-001 1.5100449323654175e-001</leafValues></_>
        <_>
          <internalNodes>
            0 -1 170 4.2147509753704071e-002</internalNodes>
          <leafValues>
            -5.3849723190069199e-002 3.7138947844505310e-001</leafValues></_>
        <_>
          <internalNodes>
            0 -1 131 4.3483089655637741e-002</internalNodes>
          <leafValues>
            -4.7172181308269501e-002 4.1575995087623596e-001</leafValues></_>
        <_>
          <internalNodes>
            0 -1 120 2.7038142085075378e-002</internalNodes>
          <leafValues>
            -8.7902188301086426e-002 2.1352535486221313e-001</leafValues></_>
        <_>
          <internalNodes>
            0 -1 382 5.3018168546259403e-004</internalNodes>
          <leafValues>
            3.9093998074531555e-001 -4.7220647335052490e-002</leafValues></_>
        <_>
          <internalNodes>
            0 -1 428 7.3082931339740753e-004</internalNodes>
          <leafValues>
            -4.4278451800346375e-001 4.7249771654605865e-002</leafValues></_></weakClassifiers></_>
    <!-- stage 23 -->
    <_>
      <maxWeakCount>84</maxWeakCount>
      <stageThreshold>-7.8766688704490662e-002</stageThreshold>
      <weakClassifiers>
        <_>
          <internalNodes>
            0 -1 348 1.1767835985665442e-006</internalNodes>
          <leafValues>
            1.1627907305955887e-001 9.0019053220748901e-001</leafValues></_>
        <_>
          <internalNodes>
            0 -1 59 3.5439309431239963e-004</internalNodes>
          <leafValues>
            8.2190912961959839e-001 3.0872496962547302e-001</leafValues></_>
        <_>
          <internalNodes>
            0 -1 2 2.4364428827539086e-004</internalNodes>
          <leafValues>
            3.4981563687324524e-001 -2.3390182852745056e-001</leafValues></_>
        <_>
          <internalNodes>
            0 -1 266 6.7190919071435928e-004</internalNodes>
          <leafValues>
            5.1568728685379028e-001 -1.5479832887649536e-001</leafValues></_>
        <_>
          <internalNodes>
            0 -1 117 1.5955335693433881e-003</internalNodes>
          <leafValues>
            2.9570963978767395e-001 -2.0093511044979095e-001</leafValues></_>
        <_>
          <internalNodes>
            0 -1 599 4.0730465203523636e-002</internalNodes>
          <leafValues>
            -1.8990881741046906e-001 2.9300582408905029e-001</leafValues></_>
        <_>
          <internalNodes>
            0 -1 568 2.1739548537880182e-003</internalNodes>
          <leafValues>
            -5.9806215763092041e-001 7.8762844204902649e-002</leafValues></_>
        <_>
          <internalNodes>
            0 -1 43 5.1351089496165514e-004</internalNodes>
          <leafValues>
            3.3463829755783081e-001 -1.5356354415416718e-001</leafValues></_>
        <_>
          <internalNodes>
            0 -1 57 2.3431978479493409e-004</internalNodes>
          <leafValues>
            -8.3656972646713257e-001 5.1610514521598816e-002</leafValues></_>
        <_>
          <internalNodes>
            0 -1 259 6.5373396500945091e-004</internalNodes>
          <leafValues>
            2.7271142601966858e-001 -1.9712226092815399e-001</leafValues></_>
        <_>
          <internalNodes>
            0 -1 7 2.5029959157109261e-002</internalNodes>
          <leafValues>
            -2.0617450773715973e-001 2.1953301131725311e-001</leafValues></_>
        <_>
          <internalNodes>
            0 -1 115 4.6696912497282028e-002</internalNodes>
          <leafValues>
            7.9771108925342560e-002 -4.7855868935585022e-001</leafValues></_>
        <_>
          <internalNodes>
            0 -1 154 4.0086073568090796e-004</internalNodes>
          <leafValues>
            3.7261107563972473e-001 -1.0161864012479782e-001</leafValues></_>
        <_>
          <internalNodes>
            0 -1 478 1.0611493140459061e-002</internalNodes>
          <leafValues>
            -3.0538782477378845e-001 1.2310871481895447e-001</leafValues></_>
        <_>
          <internalNodes>
            0 -1 218 6.3871638849377632e-004</internalNodes>
          <leafValues>
            3.4638762474060059e-001 -1.0541068017482758e-001</leafValues></_>
        <_>
          <internalNodes>
            0 -1 79 9.8071945831179619e-004</internalNodes>
          <leafValues>
            2.9293599724769592e-001 -1.0570306330919266e-001</leafValues></_>
        <_>
          <internalNodes>
            0 -1 575 4.4222080759936944e-005</internalNodes>
          <leafValues>
            -7.3708814382553101e-001 4.7685682773590088e-002</leafValues></_>
        <_>
          <internalNodes>
            0 -1 520 7.8181527554988861e-002</internalNodes>
          <leafValues>
            2.8102125972509384e-002 -7.4323701858520508e-001</leafValues></_>
        <_>
          <internalNodes>
            0 -1 254 4.8259522765874863e-002</internalNodes>
          <leafValues>
            -1.2152388691902161e-001 2.7175506949424744e-001</leafValues></_>
        <_>
          <internalNodes>
            0 -1 3 2.6775075821205974e-004</internalNodes>
          <leafValues>
            1.8270075321197510e-001 -1.8144269287586212e-001</leafValues></_>
        <_>
          <internalNodes>
            0 -1 524 2.3938059806823730e-002</internalNodes>
          <leafValues>
            -1.1434365808963776e-001 2.6746037602424622e-001</leafValues></_>
        <_>
          <internalNodes>
            0 -1 308 2.2911916021257639e-003</internalNodes>
          <leafValues>
            3.2813802361488342e-001 -1.1531302332878113e-001</leafValues></_>
        <_>
          <internalNodes>
            0 -1 454 5.0564885139465332e-002</internalNodes>
          <leafValues>
            4.9999620765447617e-002 -6.0940760374069214e-001</leafValues></_>
        <_>
          <internalNodes>
            0 -1 473 3.0114622786641121e-003</internalNodes>
          <leafValues>
            -2.9680380225181580e-001 8.1268057227134705e-002</leafValues></_>
        <_>
          <internalNodes>
            0 -1 233 3.8978160591796041e-004</internalNodes>
          <leafValues>
            4.5995000004768372e-001 -6.1517950147390366e-002</leafValues></_>
        <_>
          <internalNodes>
            0 -1 271 2.9416489996947348e-004</internalNodes>
          <leafValues>
            4.9523249268531799e-001 -5.3886059671640396e-002</leafValues></_>
        <_>
          <internalNodes>
            0 -1 485 1.5803505666553974e-003</internalNodes>
          <leafValues>
            -4.5687758922576904e-001 7.6380543410778046e-002</leafValues></_>
        <_>
          <internalNodes>
            0 -1 279 1.0669903131201863e-003</internalNodes>
          <leafValues>
            2.3867015540599823e-001 -1.2069049477577209e-001</leafValues></_>
        <_>
          <internalNodes>
            0 -1 446 2.0075873471796513e-003</internalNodes>
          <leafValues>
            -4.9864214658737183e-001 6.0030430555343628e-002</leafValues></_>
        <_>
          <internalNodes>
            0 -1 501 1.2989720329642296e-002</internalNodes>
          <leafValues>
            -1.6510523855686188e-001 1.4972986280918121e-001</leafValues></_>
        <_>
          <internalNodes>
            0 -1 245 6.5289661288261414e-002</internalNodes>
          <leafValues>
            -1.3256806135177612e-001 1.9164866209030151e-001</leafValues></_>
        <_>
          <internalNodes>
            0 -1 461 1.4852479100227356e-001</internalNodes>
          <leafValues>
            6.6197171807289124e-002 -3.6556202173233032e-001</leafValues></_>
        <_>
          <internalNodes>
            0 -1 85 9.4485259614884853e-004</internalNodes>
          <leafValues>
            2.6120862364768982e-001 -8.6697742342948914e-002</leafValues></_>
        <_>
          <internalNodes>
            0 -1 57 2.9730878304690123e-003</internalNodes>
          <leafValues>
            -5.3490382432937622e-001 4.6052839607000351e-002</leafValues></_>
        <_>
          <internalNodes>
            0 -1 4 3.4730993211269379e-002</internalNodes>
          <leafValues>
            6.6762052476406097e-002 -3.2397961616516113e-001</leafValues></_>
        <_>
          <internalNodes>
            0 -1 273 8.9574404060840607e-002</internalNodes>
          <leafValues>
            -2.9991686344146729e-002 7.8509759902954102e-001</leafValues></_>
        <_>
          <internalNodes>
            0 -1 276 4.0824510157108307e-002</internalNodes>
          <leafValues>
            -8.0704621970653534e-002 2.6106548309326172e-001</leafValues></_>
        <_>
          <internalNodes>
            0 -1 258 3.1116727739572525e-002</internalNodes>
          <leafValues>
            9.8549403250217438e-002 -2.6622661948204041e-001</leafValues></_>
        <_>
          <internalNodes>
            0 -1 622 4.6591605991125107e-002</internalNodes>
          <leafValues>
            2.8924666345119476e-002 -6.7643040418624878e-001</leafValues></_>
        <_>
          <internalNodes>
            0 -1 254 8.7729945778846741e-002</internalNodes>
          <leafValues>
            -5.1224056631326675e-002 4.6790280938148499e-001</leafValues></_>
        <_>
          <internalNodes>
            0 -1 38 3.8622965803369880e-004</internalNodes>
          <leafValues>
            2.2916617989540100e-001 -9.2270411550998688e-002</leafValues></_>
        <_>
          <internalNodes>
            0 -1 393 1.1121234274469316e-004</internalNodes>
          <leafValues>
            -2.6179721951484680e-001 1.0080014169216156e-001</leafValues></_>
        <_>
          <internalNodes>
            0 -1 1 6.4199930056929588e-004</internalNodes>
          <leafValues>
            1.9191588461399078e-001 -1.4477911591529846e-001</leafValues></_>
        <_>
          <internalNodes>
            0 -1 145 1.5402014553546906e-001</internalNodes>
          <leafValues>
            2.7903463691473007e-002 -7.5604653358459473e-001</leafValues></_>
        <_>
          <internalNodes>
            0 -1 18 1.4478631317615509e-001</internalNodes>
          <leafValues>
            2.6063954457640648e-002 -6.8001949787139893e-001</leafValues></_>
        <_>
          <internalNodes>
            0 -1 146 4.5417491346597672e-002</internalNodes>
          <leafValues>
            -6.6040061414241791e-002 3.9254340529441833e-001</leafValues></_>
        <_>
          <internalNodes>
            0 -1 392 5.2698649466037750e-002</internalNodes>
          <leafValues>
            3.7781804800033569e-002 -6.5983003377914429e-001</leafValues></_>
        <_>
          <internalNodes>
            0 -1 69 3.8935104385018349e-004</internalNodes>
          <leafValues>
            2.9025429487228394e-001 -7.7955290675163269e-002</leafValues></_>
        <_>
          <internalNodes>
            0 -1 503 4.8406638205051422e-002</internalNodes>
          <leafValues>
            -7.7230572700500488e-002 2.9432144761085510e-001</leafValues></_>
        <_>
          <internalNodes>
            0 -1 268 6.4289547502994537e-002</internalNodes>
          <leafValues>
            -5.3744446486234665e-002 4.6465349197387695e-001</leafValues></_>
        <_>
          <internalNodes>
            0 -1 428 3.6430101317819208e-005</internalNodes>
          <leafValues>
            -6.0290658473968506e-001 3.9883244782686234e-002</leafValues></_>
        <_>
          <internalNodes>
            0 -1 557 9.2714693164452910e-004</internalNodes>
          <leafValues>
            -3.8219347596168518e-001 5.9869099408388138e-002</leafValues></_>
        <_>
          <internalNodes>
            0 -1 359 8.3924178034067154e-004</internalNodes>
          <leafValues>
            3.0858635902404785e-001 -9.5363333821296692e-002</leafValues></_>
        <_>
          <internalNodes>
            0 -1 161 4.6177487820386887e-004</internalNodes>
          <leafValues>
            4.2260241508483887e-001 -5.0133720040321350e-002</leafValues></_>
        <_>
          <internalNodes>
            0 -1 10 2.8633070542127825e-005</internalNodes>
          <leafValues>
            -5.8915603160858154e-001 3.6110021173954010e-002</leafValues></_>
        <_>
          <internalNodes>
            0 -1 197 2.3274496197700500e-001</internalNodes>
          <leafValues>
            2.4559540674090385e-002 -7.3637300729751587e-001</leafValues></_>
        <_>
          <internalNodes>
            0 -1 336 5.4630404338240623e-004</internalNodes>
          <leafValues>
            2.7749195694923401e-001 -8.4403797984123230e-002</leafValues></_>
        <_>
          <internalNodes>
            0 -1 629 3.9668699173489586e-005</internalNodes>
          <leafValues>
            -3.4784543514251709e-001 5.7782828807830811e-002</leafValues></_>
        <_>
          <internalNodes>
            0 -1 129 6.5255083609372377e-004</internalNodes>
          <leafValues>
            4.0116083621978760e-001 -4.7928918153047562e-002</leafValues></_>
        <_>
          <internalNodes>
            0 -1 113 3.4024894237518311e-002</internalNodes>
          <leafValues>
            -1.4449937641620636e-001 1.6830077767372131e-001</leafValues></_>
        <_>
          <internalNodes>
            0 -1 330 1.1076675727963448e-003</internalNodes>
          <leafValues>
            -6.5256786346435547e-001 3.1248908489942551e-002</leafValues></_>
        <_>
          <internalNodes>
            0 -1 344 2.7520235744304955e-004</internalNodes>
          <leafValues>
            3.5350832343101501e-001 -6.5559774637222290e-002</leafValues></_>
        <_>
          <internalNodes>
            0 -1 558 3.7447414360940456e-003</internalNodes>
          <leafValues>
            -2.4804052710533142e-001 7.9428724944591522e-002</leafValues></_>
        <_>
          <internalNodes>
            0 -1 155 1.3186451978981495e-003</internalNodes>
          <leafValues>
            2.0390680432319641e-001 -9.4521880149841309e-002</leafValues></_>
        <_>
          <internalNodes>
            0 -1 471 4.8336140811443329e-002</internalNodes>
          <leafValues>
            -1.4723680913448334e-001 1.2643001973628998e-001</leafValues></_>
        <_>
          <internalNodes>
            0 -1 91 8.1637443508952856e-004</internalNodes>
          <leafValues>
            3.0203223228454590e-001 -7.6941467821598053e-002</leafValues></_>
        <_>
          <internalNodes>
            0 -1 119 1.8406252562999725e-001</internalNodes>
          <leafValues>
            5.0315231084823608e-002 -4.6139934659004211e-001</leafValues></_>
        <_>
          <internalNodes>
            0 -1 474 8.7549701333045959e-002</internalNodes>
          <leafValues>
            2.5279013440012932e-002 -7.0489197969436646e-001</leafValues></_>
        <_>
          <internalNodes>
            0 -1 284 6.8826943635940552e-002</internalNodes>
          <leafValues>
            -3.8309969007968903e-002 5.6644630432128906e-001</leafValues></_>
        <_>
          <internalNodes>
            0 -1 640 4.5935153961181641e-002</internalNodes>
          <leafValues>
            -1.4934992790222168e-001 1.2430031597614288e-001</leafValues></_>
        <_>
          <internalNodes>
            0 -1 19 2.3039866238832474e-002</internalNodes>
          <leafValues>
            -1.1151766031980515e-001 1.5976496040821075e-001</leafValues></_>
        <_>
          <internalNodes>
            0 -1 627 2.1835640654899180e-004</internalNodes>
          <leafValues>
            5.5881381034851074e-001 -3.2610852271318436e-002</leafValues></_>
        <_>
          <internalNodes>
            0 -1 275 3.2406926155090332e-002</internalNodes>
          <leafValues>
            -1.5075790882110596e-001 1.2992107868194580e-001</leafValues></_>
        <_>
          <internalNodes>
            0 -1 592 4.3496772646903992e-002</internalNodes>
          <leafValues>
            -5.2783541381359100e-002 3.7645193934440613e-001</leafValues></_>
        <_>
          <internalNodes>
            0 -1 223 7.3467701440677047e-005</internalNodes>
          <leafValues>
            -8.5575675964355469e-001 2.3789398372173309e-002</leafValues></_>
        <_>
          <internalNodes>
            0 -1 399 3.8764220662415028e-003</internalNodes>
          <leafValues>
            -4.3719986081123352e-001 3.4993581473827362e-002</leafValues></_>
        <_>
          <internalNodes>
            0 -1 147 7.2942534461617470e-004</internalNodes>
          <leafValues>
            3.3603313565254211e-001 -6.0558959841728210e-002</leafValues></_>
        <_>
          <internalNodes>
            0 -1 421 1.9971828907728195e-002</internalNodes>
          <leafValues>
            6.5394520759582520e-002 -2.7539232373237610e-001</leafValues></_>
        <_>
          <internalNodes>
            0 -1 186 1.4166732318699360e-002</internalNodes>
          <leafValues>
            -1.1215060949325562e-001 2.1926634013652802e-001</leafValues></_>
        <_>
          <internalNodes>
            0 -1 194 8.4295542910695076e-003</internalNodes>
          <leafValues>
            -3.7526345252990723e-001 4.9502234905958176e-002</leafValues></_>
        <_>
          <internalNodes>
            0 -1 82 5.5426522158086300e-003</internalNodes>
          <leafValues>
            2.8626441955566406e-001 -6.3140362501144409e-002</leafValues></_>
        <_>
          <internalNodes>
            0 -1 361 8.3584651350975037e-002</internalNodes>
          <leafValues>
            -4.2216621339321136e-002 4.1520306468009949e-001</leafValues></_>
        <_>
          <internalNodes>
            0 -1 89 5.3191252052783966e-002</internalNodes>
          <leafValues>
            -3.8197554647922516e-002 4.2395719885826111e-001</leafValues></_>
        <_>
          <internalNodes>
            0 -1 213 4.1723482310771942e-002</internalNodes>
          <leafValues>
            -9.5152065157890320e-002 1.9866141676902771e-001</leafValues></_></weakClassifiers></_>
    <!-- stage 24 -->
    <_>
      <maxWeakCount>80</maxWeakCount>
      <stageThreshold>-7.5995534658432007e-002</stageThreshold>
      <weakClassifiers>
        <_>
          <internalNodes>
            0 -1 628 3.2075935602188110e-001</internalNodes>
          <leafValues>
            8.9725774526596069e-001 -8.4615385532379150e-001</leafValues></_>
        <_>
          <internalNodes>
            0 -1 76 7.5446360278874636e-004</internalNodes>
          <leafValues>
            8.5764020681381226e-001 3.3790171146392822e-001</leafValues></_>
        <_>
          <internalNodes>
            0 -1 355 5.0619669491425157e-004</internalNodes>
          <leafValues>
            4.9571463465690613e-001 -6.4579531550407410e-002</leafValues></_>
        <_>
          <internalNodes>
            0 -1 154 8.3987030666321516e-004</internalNodes>
          <leafValues>
            4.1944777965545654e-001 -1.2357878684997559e-001</leafValues></_>
        <_>
          <internalNodes>
            0 -1 405 5.2437819540500641e-002</internalNodes>
          <leafValues>
            -3.3158504962921143e-001 1.7187978327274323e-001</leafValues></_>
        <_>
          <internalNodes>
            0 -1 561 3.0459307134151459e-002</internalNodes>
          <leafValues>
            -2.0690210163593292e-001 2.3525458574295044e-001</leafValues></_>
        <_>
          <internalNodes>
            0 -1 478 5.9777125716209412e-003</internalNodes>
          <leafValues>
            -4.6999305486679077e-001 7.7368125319480896e-002</leafValues></_>
        <_>
          <internalNodes>
            0 -1 3 3.2749638194218278e-004</internalNodes>
          <leafValues>
            2.0426321029663086e-001 -2.2857089340686798e-001</leafValues></_>
        <_>
          <internalNodes>
            0 -1 617 3.7228457629680634e-002</internalNodes>
          <leafValues>
            -1.7306868731975555e-001 3.2330682873725891e-001</leafValues></_>
        <_>
          <internalNodes>
            0 -1 108 4.0063194930553436e-002</internalNodes>
          <leafValues>
            -1.1658199131488800e-001 3.2737314701080322e-001</leafValues></_>
        <_>
          <internalNodes>
            0 -1 277 6.1674613971263170e-004</internalNodes>
          <leafValues>
            3.0744528770446777e-001 -1.4979405701160431e-001</leafValues></_>
        <_>
          <internalNodes>
            0 -1 595 5.3125256672501564e-003</internalNodes>
          <leafValues>
            -5.5745005607604980e-001 8.1404827535152435e-002</leafValues></_>
        <_>
          <internalNodes>
            0 -1 535 1.5903729945421219e-002</internalNodes>
          <leafValues>
            -1.3502977788448334e-001 2.9054024815559387e-001</leafValues></_>
        <_>
          <internalNodes>
            0 -1 55 7.5000559445470572e-004</internalNodes>
          <leafValues>
            3.2189515233039856e-001 -1.5566822886466980e-001</leafValues></_>
        <_>
          <internalNodes>
            0 -1 8 8.8903149589896202e-003</internalNodes>
          <leafValues>
            -2.6121929287910461e-001 1.2503844499588013e-001</leafValues></_>
        <_>
          <internalNodes>
            0 -1 565 6.6026270389556885e-002</internalNodes>
          <leafValues>
            4.0001142770051956e-002 -8.1232422590255737e-001</leafValues></_>
        <_>
          <internalNodes>
            0 -1 220 3.4835981205105782e-003</internalNodes>
          <leafValues>
            2.2263377904891968e-001 -1.4341829717159271e-001</leafValues></_>
        <_>
          <internalNodes>
            0 -1 593 3.1509645283222198e-002</internalNodes>
          <leafValues>
            8.0661617219448090e-002 -3.3622881770133972e-001</leafValues></_>
        <_>
          <internalNodes>
            0 -1 39 5.3613795898854733e-004</internalNodes>
          <leafValues>
            2.2612179815769196e-001 -1.3039408624172211e-001</leafValues></_>
        <_>
          <internalNodes>
            0 -1 256 3.1258400529623032e-002</internalNodes>
          <leafValues>
            -1.0432752966880798e-001 2.7576851844787598e-001</leafValues></_>
        <_>
          <internalNodes>
            0 -1 401 1.1124001443386078e-001</internalNodes>
          <leafValues>
            4.1417807340621948e-002 -7.4154084920883179e-001</leafValues></_>
        <_>
          <internalNodes>
            0 -1 411 1.4184612035751343e-001</internalNodes>
          <leafValues>
            2.9117366299033165e-002 -7.8536784648895264e-001</leafValues></_>
        <_>
          <internalNodes>
            0 -1 236 7.2437006747350097e-004</internalNodes>
          <leafValues>
            -7.7704101800918579e-001 3.0297670513391495e-002</leafValues></_>
        <_>
          <internalNodes>
            0 -1 296 3.3965910552069545e-004</internalNodes>
          <leafValues>
            3.5381409525871277e-001 -8.2202367484569550e-002</leafValues></_>
        <_>
          <internalNodes>
            0 -1 438 3.8266898627625778e-005</internalNodes>
          <leafValues>
            -6.1089813709259033e-001 3.8534369319677353e-002</leafValues></_>
        <_>
          <internalNodes>
            0 -1 1 6.4199930056929588e-004</internalNodes>
          <leafValues>
            1.7590130865573883e-001 -1.4388401806354523e-001</leafValues></_>
        <_>
          <internalNodes>
            0 -1 403 3.6486797034740448e-002</internalNodes>
          <leafValues>
            4.7685354948043823e-002 -5.5889540910720825e-001</leafValues></_>
        <_>
          <internalNodes>
            0 -1 254 1.0946406051516533e-002</internalNodes>
          <leafValues>
            -2.5311121344566345e-001 1.0063505172729492e-001</leafValues></_>
        <_>
          <internalNodes>
            0 -1 334 9.4177946448326111e-002</internalNodes>
          <leafValues>
            -5.4346300661563873e-002 4.9462661147117615e-001</leafValues></_>
        <_>
          <internalNodes>
            0 -1 533 3.8592044264078140e-002</internalNodes>
          <leafValues>
            -5.3544539958238602e-002 4.6873620152473450e-001</leafValues></_>
        <_>
          <internalNodes>
            0 -1 129 2.6703625917434692e-002</internalNodes>
          <leafValues>
            -1.0234879702329636e-001 2.3997274041175842e-001</leafValues></_>
        <_>
          <internalNodes>
            0 -1 269 1.1939569376409054e-002</internalNodes>
          <leafValues>
            1.9253797829151154e-001 -1.3173460960388184e-001</leafValues></_>
        <_>
          <internalNodes>
            0 -1 508 7.5788972899317741e-003</internalNodes>
          <leafValues>
            -1.5167896449565887e-001 1.7071990668773651e-001</leafValues></_>
        <_>
          <internalNodes>
            0 -1 469 2.3933876305818558e-002</internalNodes>
          <leafValues>
            7.5946219265460968e-002 -3.2970383763313293e-001</leafValues></_>
        <_>
          <internalNodes>
            0 -1 6 4.6002849936485291e-002</internalNodes>
          <leafValues>
            -1.0036787390708923e-001 2.6225766539573669e-001</leafValues></_>
        <_>
          <internalNodes>
            0 -1 258 6.7130699753761292e-002</internalNodes>
          <leafValues>
            4.7410152852535248e-002 -5.1989030838012695e-001</leafValues></_>
        <_>
          <internalNodes>
            0 -1 577 5.9900619089603424e-002</internalNodes>
          <leafValues>
            -7.0115789771080017e-002 3.7541204690933228e-001</leafValues></_>
        <_>
          <internalNodes>
            0 -1 502 1.5085829421877861e-002</internalNodes>
          <leafValues>
            -2.0626828074455261e-001 1.2264364212751389e-001</leafValues></_>
        <_>
          <internalNodes>
            0 -1 483 5.8540545403957367e-002</internalNodes>
          <leafValues>
            1.2170974165201187e-001 -2.3575742542743683e-001</leafValues></_>
        <_>
          <internalNodes>
            0 -1 331 6.8904738873243332e-004</internalNodes>
          <leafValues>
            3.5026544332504272e-001 -8.5225015878677368e-002</leafValues></_>
        <_>
          <internalNodes>
            0 -1 482 1.0646562278270721e-001</internalNodes>
          <leafValues>
            2.8061177581548691e-002 -7.6183813810348511e-001</leafValues></_>
        <_>
          <internalNodes>
            0 -1 531 5.7705484330654144e-002</internalNodes>
          <leafValues>
            -7.0290878415107727e-002 3.6526387929916382e-001</leafValues></_>
        <_>
          <internalNodes>
            0 -1 268 8.0327272415161133e-002</internalNodes>
          <leafValues>
            -3.6406837403774261e-002 5.3625005483627319e-001</leafValues></_>
        <_>
          <internalNodes>
            0 -1 328 6.4186647534370422e-002</internalNodes>
          <leafValues>
            3.2222926616668701e-002 -6.8694776296615601e-001</leafValues></_>
        <_>
          <internalNodes>
            0 -1 81 9.0840284246951342e-004</internalNodes>
          <leafValues>
            2.9698672890663147e-001 -8.3168379962444305e-002</leafValues></_>
        <_>
          <internalNodes>
            0 -1 473 3.0320861842483282e-003</internalNodes>
          <leafValues>
            -2.9328888654708862e-001 8.5059650242328644e-002</leafValues></_>
        <_>
          <internalNodes>
            0 -1 605 2.5404621846973896e-003</internalNodes>
          <leafValues>
            -4.8090797662734985e-001 4.6261046081781387e-002</leafValues></_>
        <_>
          <internalNodes>
            0 -1 376 4.4962746324017644e-004</internalNodes>
          <leafValues>
            3.5006877779960632e-001 -6.7006617784500122e-002</leafValues></_>
        <_>
          <internalNodes>
            0 -1 654 1.5036777767818421e-004</internalNodes>
          <leafValues>
            -4.1120806336402893e-001 6.5321780741214752e-002</leafValues></_>
        <_>
          <internalNodes>
            0 -1 22 9.4016594812273979e-003</internalNodes>
          <leafValues>
            1.0753230750560760e-001 -2.3313409090042114e-001</leafValues></_>
        <_>
          <internalNodes>
            0 -1 170 6.4325064420700073e-002</internalNodes>
          <leafValues>
            -4.1065432131290436e-002 5.9673988819122314e-001</leafValues></_>
        <_>
          <internalNodes>
            0 -1 341 5.4111897945404053e-002</internalNodes>
          <leafValues>
            -7.6107874512672424e-002 2.8680187463760376e-001</leafValues></_>
        <_>
          <internalNodes>
            0 -1 383 4.6131771523505449e-004</internalNodes>
          <leafValues>
            3.4081554412841797e-001 -6.8553328514099121e-002</leafValues></_>
        <_>
          <internalNodes>
            0 -1 200 3.4142568707466125e-002</internalNodes>
          <leafValues>
            -1.0410349816083908e-001 2.0281718671321869e-001</leafValues></_>
        <_>
          <internalNodes>
            0 -1 199 8.0927843227982521e-003</internalNodes>
          <leafValues>
            1.7422811686992645e-001 -1.2296994030475616e-001</leafValues></_>
        <_>
          <internalNodes>
            0 -1 513 3.7573135923594236e-003</internalNodes>
          <leafValues>
            -2.3131275177001953e-001 1.1029875278472900e-001</leafValues></_>
        <_>
          <internalNodes>
            0 -1 312 2.4001579731702805e-002</internalNodes>
          <leafValues>
            8.0068036913871765e-002 -2.7127057313919067e-001</leafValues></_>
        <_>
          <internalNodes>
            0 -1 135 3.2285265624523163e-002</internalNodes>
          <leafValues>
            -7.8020863234996796e-002 2.4959671497344971e-001</leafValues></_>
        <_>
          <internalNodes>
            0 -1 7 4.7002889215946198e-002</internalNodes>
          <leafValues>
            -9.1827355325222015e-002 2.4734105169773102e-001</leafValues></_>
        <_>
          <internalNodes>
            0 -1 158 5.8347925543785095e-002</internalNodes>
          <leafValues>
            -9.6722662448883057e-002 2.1179634332656860e-001</leafValues></_>
        <_>
          <internalNodes>
            0 -1 607 2.7153037488460541e-002</internalNodes>
          <leafValues>
            -9.6424750983715057e-002 2.5720003247261047e-001</leafValues></_>
        <_>
          <internalNodes>
            0 -1 276 2.7522200718522072e-002</internalNodes>
          <leafValues>
            -1.0663765668869019e-001 1.9008870422840118e-001</leafValues></_>
        <_>
          <internalNodes>
            0 -1 260 2.9150778427720070e-003</internalNodes>
          <leafValues>
            1.5665975213050842e-001 -1.5416322648525238e-001</leafValues></_>
        <_>
          <internalNodes>
            0 -1 477 8.3372548222541809e-002</internalNodes>
          <leafValues>
            3.8393329828977585e-002 -5.5704677104949951e-001</leafValues></_>
        <_>
          <internalNodes>
            0 -1 262 3.1634360551834106e-002</internalNodes>
          <leafValues>
            -6.7606270313262939e-002 3.1774008274078369e-001</leafValues></_>
        <_>
          <internalNodes>
            0 -1 570 1.7339667677879333e-001</internalNodes>
          <leafValues>
            2.4347372353076935e-002 -8.5953593254089355e-001</leafValues></_>
        <_>
          <internalNodes>
            0 -1 312 3.0067499028518796e-004</internalNodes>
          <leafValues>
            2.9207110404968262e-001 -7.3500528931617737e-002</leafValues></_>
        <_>
          <internalNodes>
            0 -1 0 4.8636481165885925e-002</internalNodes>
          <leafValues>
            3.3242825418710709e-002 -5.4010784626007080e-001</leafValues></_>
        <_>
          <internalNodes>
            0 -1 315 1.7512269550934434e-003</internalNodes>
          <leafValues>
            -6.5565872192382813e-001 2.4401346221566200e-002</leafValues></_>
        <_>
          <internalNodes>
            0 -1 111 2.2114132298156619e-004</internalNodes>
          <leafValues>
            3.4264478087425232e-001 -6.6189594566822052e-002</leafValues></_>
        <_>
          <internalNodes>
            0 -1 447 2.4675121530890465e-003</internalNodes>
          <leafValues>
            -1.9775880873203278e-001 1.0996530205011368e-001</leafValues></_>
        <_>
          <internalNodes>
            0 -1 284 6.1228509992361069e-002</internalNodes>
          <leafValues>
            -3.7745479494333267e-002 4.7421705722808838e-001</leafValues></_>
        <_>
          <internalNodes>
            0 -1 101 5.5240455549210310e-004</internalNodes>
          <leafValues>
            1.9416928291320801e-001 -8.5978932678699493e-002</leafValues></_>
        <_>
          <internalNodes>
            0 -1 559 1.8862292636185884e-003</internalNodes>
          <leafValues>
            -5.6660956144332886e-001 3.3494152128696442e-002</leafValues></_>
        <_>
          <internalNodes>
            0 -1 164 5.8648087084293365e-002</internalNodes>
          <leafValues>
            -5.1490850746631622e-002 3.9816415309906006e-001</leafValues></_>
        <_>
          <internalNodes>
            0 -1 454 7.4483513832092285e-002</internalNodes>
          <leafValues>
            2.5787681341171265e-002 -7.0886194705963135e-001</leafValues></_>
        <_>
          <internalNodes>
            0 -1 203 2.9139172285795212e-002</internalNodes>
          <leafValues>
            -6.5230906009674072e-002 3.6146798729896545e-001</leafValues></_>
        <_>
          <internalNodes>
            0 -1 388 2.4803353473544121e-002</internalNodes>
          <leafValues>
            8.5065454244613647e-002 -2.1345107257366180e-001</leafValues></_>
        <_>
          <internalNodes>
            0 -1 290 6.6957683302462101e-003</internalNodes>
          <leafValues>
            -3.8875725865364075e-001 4.2571973055601120e-002</leafValues></_>
        <_>
          <internalNodes>
            0 -1 86 1.5562765765935183e-003</internalNodes>
          <leafValues>
            3.2584828138351440e-001 -5.6977745145559311e-002</leafValues></_></weakClassifiers></_>
    <!-- stage 25 -->
    <_>
      <maxWeakCount>74</maxWeakCount>
      <stageThreshold>-3.6549374926835299e-003</stageThreshold>
      <weakClassifiers>
        <_>
          <internalNodes>
            0 -1 394 9.6947036683559418e-002</internalNodes>
          <leafValues>
            8.9948844909667969e-001 -5.1612901687622070e-001</leafValues></_>
        <_>
          <internalNodes>
            0 -1 208 6.8758532870560884e-004</internalNodes>
          <leafValues>
            8.1678968667984009e-001 3.3105608820915222e-001</leafValues></_>
        <_>
          <internalNodes>
            0 -1 1 2.3510642349720001e-003</internalNodes>
          <leafValues>
            3.2782000303268433e-001 -2.0526258647441864e-001</leafValues></_>
        <_>
          <internalNodes>
            0 -1 326 9.6894964575767517e-002</internalNodes>
          <leafValues>
            -8.6623489856719971e-002 6.6631996631622314e-001</leafValues></_>
        <_>
          <internalNodes>
            0 -1 372 2.0360581576824188e-002</internalNodes>
          <leafValues>
            1.2324406206607819e-001 -3.5638904571533203e-001</leafValues></_>
        <_>
          <internalNodes>
            0 -1 134 1.5306002460420132e-002</internalNodes>
          <leafValues>
            -1.9248035550117493e-001 2.5240096449851990e-001</leafValues></_>
        <_>
          <internalNodes>
            0 -1 84 8.6903490591794252e-004</internalNodes>
          <leafValues>
            2.3390255868434906e-001 -1.6343922913074493e-001</leafValues></_>
        <_>
          <internalNodes>
            0 -1 594 2.9960822314023972e-002</internalNodes>
          <leafValues>
            -1.4356984198093414e-001 2.8320160508155823e-001</leafValues></_>
        <_>
          <internalNodes>
            0 -1 199 4.8642240464687347e-002</internalNodes>
          <leafValues>
            -6.7158132791519165e-002 5.8745235204696655e-001</leafValues></_>
        <_>
          <internalNodes>
            0 -1 445 1.5843631327152252e-001</internalNodes>
          <leafValues>
            4.9093239009380341e-002 -8.8144838809967041e-001</leafValues></_>
        <_>
          <internalNodes>
            0 -1 23 3.1271699117496610e-004</internalNodes>
          <leafValues>
            2.5191575288772583e-001 -1.7266540229320526e-001</leafValues></_>
        <_>
          <internalNodes>
            0 -1 145 1.0455796122550964e-001</internalNodes>
          <leafValues>
            8.3020403981208801e-002 -5.5305188894271851e-001</leafValues></_>
        <_>
          <internalNodes>
            0 -1 280 5.2839820273220539e-004</internalNodes>
          <leafValues>
            3.1773522496223450e-001 -1.2869909405708313e-001</leafValues></_>
        <_>
          <internalNodes>
            0 -1 452 3.5149984061717987e-002</internalNodes>
          <leafValues>
            -1.7863771319389343e-001 2.1242095530033112e-001</leafValues></_>
        <_>
          <internalNodes>
            0 -1 613 3.6166044883430004e-003</internalNodes>
          <leafValues>
            -5.6374359130859375e-001 6.2752768397331238e-002</leafValues></_>
        <_>
          <internalNodes>
            0 -1 369 3.5711866803467274e-004</internalNodes>
          <leafValues>
            3.7392017245292664e-001 -9.9504925310611725e-002</leafValues></_>
        <_>
          <internalNodes>
            0 -1 568 3.0530134681612253e-003</internalNodes>
          <leafValues>
            -4.3781605362892151e-001 7.2654359042644501e-002</leafValues></_>
        <_>
          <internalNodes>
            0 -1 29 2.7451142668724060e-003</internalNodes>
          <leafValues>
            3.9556276798248291e-001 -1.1211458593606949e-001</leafValues></_>
        <_>
          <internalNodes>
            0 -1 157 1.9501138478517532e-002</internalNodes>
          <leafValues>
            -1.5069222450256348e-001 2.2793847322463989e-001</leafValues></_>
        <_>
          <internalNodes>
            0 -1 530 3.6890804767608643e-003</internalNodes>
          <leafValues>
            -2.2754997014999390e-001 1.3128696382045746e-001</leafValues></_>
        <_>
          <internalNodes>
            0 -1 139 8.9516192674636841e-002</internalNodes>
          <leafValues>
            6.8282350897789001e-002 -4.4368129968643188e-001</leafValues></_>
        <_>
          <internalNodes>
            0 -1 471 6.2192197889089584e-002</internalNodes>
          <leafValues>
            -1.6806285083293915e-001 1.9419564306735992e-001</leafValues></_>
        <_>
          <internalNodes>
            0 -1 635 4.2689554393291473e-002</internalNodes>
          <leafValues>
            -1.2866383790969849e-001 2.9769581556320190e-001</leafValues></_>
        <_>
          <internalNodes>
            0 -1 3 1.1150415521115065e-003</internalNodes>
          <leafValues>
            1.6728015244007111e-001 -2.4382448196411133e-001</leafValues></_>
        <_>
          <internalNodes>
            0 -1 389 3.5039797425270081e-002</internalNodes>
          <leafValues>
            -2.1428051590919495e-001 1.5497787296772003e-001</leafValues></_>
        <_>
          <internalNodes>
            0 -1 232 6.1511538922786713e-002</internalNodes>
          <leafValues>
            -7.5696364045143127e-002 3.3639979362487793e-001</leafValues></_>
        <_>
          <internalNodes>
            0 -1 535 2.2151719778776169e-002</internalNodes>
          <leafValues>
            -7.3834136128425598e-002 3.3215057849884033e-001</leafValues></_>
        <_>
          <internalNodes>
            0 -1 45 4.7298881690949202e-004</internalNodes>
          <leafValues>
            2.8548172116279602e-001 -1.0323348641395569e-001</leafValues></_>
        <_>
          <internalNodes>
            0 -1 440 3.0519015126628801e-005</internalNodes>
          <leafValues>
            -7.0956259965896606e-001 5.0087533891201019e-002</leafValues></_>
        <_>
          <internalNodes>
            0 -1 34 7.5448205461725593e-004</internalNodes>
          <leafValues>
            2.0727996528148651e-001 -1.2517887353897095e-001</leafValues></_>
        <_>
          <internalNodes>
            0 -1 429 1.0458362288773060e-002</internalNodes>
          <leafValues>
            -1.8323877453804016e-001 1.5151384472846985e-001</leafValues></_>
        <_>
          <internalNodes>
            0 -1 499 8.7371379137039185e-002</internalNodes>
          <leafValues>
            4.9879159778356552e-002 -5.5130463838577271e-001</leafValues></_>
        <_>
          <internalNodes>
            0 -1 336 1.1522125452756882e-002</internalNodes>
          <leafValues>
            1.3432124257087708e-001 -2.1613377332687378e-001</leafValues></_>
        <_>
          <internalNodes>
            0 -1 486 1.3481080532073975e-002</internalNodes>
          <leafValues>
            -2.4259133636951447e-001 1.1604539304971695e-001</leafValues></_>
        <_>
          <internalNodes>
            0 -1 278 1.2312912149354815e-003</internalNodes>
          <leafValues>
            1.8859131634235382e-001 -1.3252519071102142e-001</leafValues></_>
        <_>
          <internalNodes>
            0 -1 340 8.1914756447076797e-003</internalNodes>
          <leafValues>
            -5.1729875802993774e-001 4.5330919325351715e-002</leafValues></_>
        <_>
          <internalNodes>
            0 -1 0 6.3015386462211609e-002</internalNodes>
          <leafValues>
            2.8320683166384697e-002 -7.2314488887786865e-001</leafValues></_>
        <_>
          <internalNodes>
            0 -1 136 3.0235812067985535e-002</internalNodes>
          <leafValues>
            -1.0393726080656052e-001 2.5728660821914673e-001</leafValues></_>
        <_>
          <internalNodes>
            0 -1 396 2.9479438439011574e-002</internalNodes>
          <leafValues>
            -1.6616967320442200e-001 1.8273390829563141e-001</leafValues></_>
        <_>
          <internalNodes>
            0 -1 469 3.6234710365533829e-002</internalNodes>
          <leafValues>
            4.2698208242654800e-002 -5.4958736896514893e-001</leafValues></_>
        <_>
          <internalNodes>
            0 -1 557 1.4431223971769214e-003</internalNodes>
          <leafValues>
            -3.3218175172805786e-001 8.0614618957042694e-002</leafValues></_>
        <_>
          <internalNodes>
            0 -1 210 5.8173679281026125e-004</internalNodes>
          <leafValues>
            3.5460168123245239e-001 -9.3518964946269989e-002</leafValues></_>
        <_>
          <internalNodes>
            0 -1 430 4.1894882917404175e-002</internalNodes>
          <leafValues>
            3.9116930216550827e-002 -6.1839461326599121e-001</leafValues></_>
        <_>
          <internalNodes>
            0 -1 386 5.6283079087734222e-002</internalNodes>
          <leafValues>
            -7.0034667849540710e-002 3.7172603607177734e-001</leafValues></_>
        <_>
          <internalNodes>
            0 -1 477 1.1243815720081329e-001</internalNodes>
          <leafValues>
            3.2902188599109650e-002 -6.9601643085479736e-001</leafValues></_>
        <_>
          <internalNodes>
            0 -1 2 2.9791734414175153e-004</internalNodes>
          <leafValues>
            1.3366863131523132e-001 -1.5848952531814575e-001</leafValues></_>
        <_>
          <internalNodes>
            0 -1 431 4.7449353151023388e-003</internalNodes>
          <leafValues>
            -3.1604406237602234e-001 9.6826724708080292e-002</leafValues></_>
        <_>
          <internalNodes>
            0 -1 256 4.0933830314315856e-004</internalNodes>
          <leafValues>
            3.1405347585678101e-001 -7.2849057614803314e-002</leafValues></_>
        <_>
          <internalNodes>
            0 -1 31 1.3283854350447655e-002</internalNodes>
          <leafValues>
            -1.9838289916515350e-001 1.2270597368478775e-001</leafValues></_>
        <_>
          <internalNodes>
            0 -1 72 1.0882103815674782e-003</internalNodes>
          <leafValues>
            2.4387346208095551e-001 -9.9233530461788177e-002</leafValues></_>
        <_>
          <internalNodes>
            0 -1 188 5.3830645978450775e-002</internalNodes>
          <leafValues>
            -7.6164066791534424e-002 2.9675388336181641e-001</leafValues></_>
        <_>
          <internalNodes>
            0 -1 482 1.0102660953998566e-001</internalNodes>
          <leafValues>
            3.5332337021827698e-002 -7.9359173774719238e-001</leafValues></_>
        <_>
          <internalNodes>
            0 -1 40 4.9759540706872940e-004</internalNodes>
          <leafValues>
            3.7069681286811829e-001 -6.6146217286586761e-002</leafValues></_>
        <_>
          <internalNodes>
            0 -1 517 1.6475562006235123e-002</internalNodes>
          <leafValues>
            -1.7898790538311005e-001 1.3961176574230194e-001</leafValues></_>
        <_>
          <internalNodes>
            0 -1 242 3.2377548515796661e-002</internalNodes>
          <leafValues>
            6.5248630940914154e-002 -3.7381881475448608e-001</leafValues></_>
        <_>
          <internalNodes>
            0 -1 173 2.7120091021060944e-002</internalNodes>
          <leafValues>
            -6.8446516990661621e-002 3.8242518901824951e-001</leafValues></_>
        <_>
          <internalNodes>
            0 -1 654 4.4066490954719484e-004</internalNodes>
          <leafValues>
            -3.7893655896186829e-001 7.4020534753799438e-002</leafValues></_>
        <_>
          <internalNodes>
            0 -1 246 2.3762268945574760e-002</internalNodes>
          <leafValues>
            1.0939264297485352e-001 -2.5624293088912964e-001</leafValues></_>
        <_>
          <internalNodes>
            0 -1 217 4.0001370012760162e-002</internalNodes>
          <leafValues>
            -4.1052464395761490e-002 5.5683898925781250e-001</leafValues></_>
        <_>
          <internalNodes>
            0 -1 593 3.5427905619144440e-002</internalNodes>
          <leafValues>
            7.0582076907157898e-002 -3.4436786174774170e-001</leafValues></_>
        <_>
          <internalNodes>
            0 -1 141 3.2129932194948196e-002</internalNodes>
          <leafValues>
            -1.1351998150348663e-001 2.5730156898498535e-001</leafValues></_>
        <_>
          <internalNodes>
            0 -1 75 3.1617621425539255e-004</internalNodes>
          <leafValues>
            2.4859918653964996e-001 -8.1647202372550964e-002</leafValues></_>
        <_>
          <internalNodes>
            0 -1 453 1.2540301308035851e-002</internalNodes>
          <leafValues>
            -1.9702018797397614e-001 1.2962476909160614e-001</leafValues></_>
        <_>
          <internalNodes>
            0 -1 385 4.5423533767461777e-002</internalNodes>
          <leafValues>
            -7.6767258346080780e-002 2.9893341660499573e-001</leafValues></_>
        <_>
          <internalNodes>
            0 -1 618 2.6006060838699341e-001</internalNodes>
          <leafValues>
            2.7928614988923073e-002 -8.4308612346649170e-001</leafValues></_>
        <_>
          <internalNodes>
            0 -1 224 4.5271159615367651e-004</internalNodes>
          <leafValues>
            3.7249094247817993e-001 -7.0239283144474030e-002</leafValues></_>
        <_>
          <internalNodes>
            0 -1 473 8.1165554001927376e-004</internalNodes>
          <leafValues>
            -3.5204514861106873e-001 6.7128181457519531e-002</leafValues></_>
        <_>
          <internalNodes>
            0 -1 455 4.1262961924076080e-002</internalNodes>
          <leafValues>
            5.1308535039424896e-002 -4.1421645879745483e-001</leafValues></_>
        <_>
          <internalNodes>
            0 -1 23 1.2875483371317387e-002</internalNodes>
          <leafValues>
            7.7960990369319916e-002 -2.7531099319458008e-001</leafValues></_>
        <_>
          <internalNodes>
            0 -1 501 1.4934381470084190e-002</internalNodes>
          <leafValues>
            -1.3189069926738739e-001 1.7658093571662903e-001</leafValues></_>
        <_>
          <internalNodes>
            0 -1 288 9.5156036317348480e-002</internalNodes>
          <leafValues>
            -2.9421200975775719e-002 6.7444586753845215e-001</leafValues></_>
        <_>
          <internalNodes>
            0 -1 14 4.0732542402110994e-004</internalNodes>
          <leafValues>
            2.0454551279544830e-001 -1.0207193344831467e-001</leafValues></_>
        <_>
          <internalNodes>
            0 -1 465 1.5831100940704346e-001</internalNodes>
          <leafValues>
            2.7134831994771957e-002 -6.8957614898681641e-001</leafValues></_>
        <_>
          <internalNodes>
            0 -1 26 4.4561110436916351e-002</internalNodes>
          <leafValues>
            -6.1726666986942291e-002 3.4970998764038086e-001</leafValues></_></weakClassifiers></_>
    <!-- stage 26 -->
    <_>
      <maxWeakCount>77</maxWeakCount>
      <stageThreshold>2.7363860979676247e-002</stageThreshold>
      <weakClassifiers>
        <_>
          <internalNodes>
            0 -1 529 6.8434387445449829e-002</internalNodes>
          <leafValues>
            8.9983606338500977e-001 8.6206898093223572e-002</leafValues></_>
        <_>
          <internalNodes>
            0 -1 332 4.7965864650905132e-003</internalNodes>
          <leafValues>
            7.2253018617630005e-001 2.9526394605636597e-001</leafValues></_>
        <_>
          <internalNodes>
            0 -1 346 1.1710787657648325e-003</internalNodes>
          <leafValues>
            4.2774635553359985e-001 -1.0671295970678329e-001</leafValues></_>
        <_>
          <internalNodes>
            0 -1 1 1.1132685467600822e-003</internalNodes>
          <leafValues>
            2.5508376955986023e-001 -2.4871324002742767e-001</leafValues></_>
        <_>
          <internalNodes>
            0 -1 294 4.2382396757602692e-002</internalNodes>
          <leafValues>
            -1.3130918145179749e-001 6.0000699758529663e-001</leafValues></_>
        <_>
          <internalNodes>
            0 -1 267 1.0203026467934251e-003</internalNodes>
          <leafValues>
            4.3335181474685669e-001 -1.1702798306941986e-001</leafValues></_>
        <_>
          <internalNodes>
            0 -1 109 6.6023143008351326e-003</internalNodes>
          <leafValues>
            2.0019544661045074e-001 -2.2976516187191010e-001</leafValues></_>
        <_>
          <internalNodes>
            0 -1 595 2.1092273294925690e-002</internalNodes>
          <leafValues>
            -2.9028028249740601e-001 1.7401450872421265e-001</leafValues></_>
        <_>
          <internalNodes>
            0 -1 254 2.5968186557292938e-002</internalNodes>
          <leafValues>
            -2.0651668310165405e-001 2.1531321108341217e-001</leafValues></_>
        <_>
          <internalNodes>
            0 -1 29 1.6333790495991707e-002</internalNodes>
          <leafValues>
            2.4768193066120148e-001 -1.9646903872489929e-001</leafValues></_>
        <_>
          <internalNodes>
            0 -1 601 3.4826030023396015e-003</internalNodes>
          <leafValues>
            -2.1486653387546539e-001 1.7358529567718506e-001</leafValues></_>
        <_>
          <internalNodes>
            0 -1 216 4.9471996724605560e-002</internalNodes>
          <leafValues>
            -2.0125658810138702e-001 1.8308913707733154e-001</leafValues></_>
        <_>
          <internalNodes>
            0 -1 31 3.6689281463623047e-002</internalNodes>
          <leafValues>
            -1.3292598724365234e-001 2.5705921649932861e-001</leafValues></_>
        <_>
          <internalNodes>
            0 -1 138 2.5815371191129088e-004</internalNodes>
          <leafValues>
            2.8079357743263245e-001 -1.3159213960170746e-001</leafValues></_>
        <_>
          <internalNodes>
            0 -1 134 2.4461287539452314e-003</internalNodes>
          <leafValues>
            -3.0476182699203491e-001 1.4231519401073456e-001</leafValues></_>
        <_>
          <internalNodes>
            0 -1 474 6.5685540437698364e-002</internalNodes>
          <leafValues>
            4.3465081602334976e-002 -6.8521368503570557e-001</leafValues></_>
        <_>
          <internalNodes>
            0 -1 259 3.1210137531161308e-003</internalNodes>
          <leafValues>
            1.8544721603393555e-001 -1.8441660702228546e-001</leafValues></_>
        <_>
          <internalNodes>
            0 -1 485 2.5466915220022202e-002</internalNodes>
          <leafValues>
            -1.4701043069362640e-001 2.5080871582031250e-001</leafValues></_>
        <_>
          <internalNodes>
            0 -1 459 4.1902430355548859e-002</internalNodes>
          <leafValues>
            5.0195317715406418e-002 -7.1568393707275391e-001</leafValues></_>
        <_>
          <internalNodes>
            0 -1 351 9.1306835412979126e-002</internalNodes>
          <leafValues>
            -6.9051608443260193e-002 4.3914487957954407e-001</leafValues></_>
        <_>
          <internalNodes>
            0 -1 481 2.2469542920589447e-002</internalNodes>
          <leafValues>
            -1.0194323956966400e-001 2.4368619918823242e-001</leafValues></_>
        <_>
          <internalNodes>
            0 -1 23 1.4893179759383202e-002</internalNodes>
          <leafValues>
            9.5210470259189606e-002 -3.9682570099830627e-001</leafValues></_>
        <_>
          <internalNodes>
            0 -1 657 3.5788596142083406e-004</internalNodes>
          <leafValues>
            -6.6458886861801147e-001 3.9752237498760223e-002</leafValues></_>
        <_>
          <internalNodes>
            0 -1 373 8.0160680226981640e-004</internalNodes>
          <leafValues>
            3.7649935483932495e-001 -8.0763354897499084e-002</leafValues></_>
        <_>
          <internalNodes>
            0 -1 557 2.6391502469778061e-003</internalNodes>
          <leafValues>
            -3.2947054505348206e-001 1.1253545433282852e-001</leafValues></_>
        <_>
          <internalNodes>
            0 -1 221 2.5792839005589485e-004</internalNodes>
          <leafValues>
            3.3293843269348145e-001 -1.0308021306991577e-001</leafValues></_>
        <_>
          <internalNodes>
            0 -1 389 4.6350710093975067e-002</internalNodes>
          <leafValues>
            -1.4531640708446503e-001 1.8907891213893890e-001</leafValues></_>
        <_>
          <internalNodes>
            0 -1 648 5.5237572640180588e-002</internalNodes>
          <leafValues>
            3.9958607405424118e-002 -6.4941251277923584e-001</leafValues></_>
        <_>
          <internalNodes>
            0 -1 397 2.5786861777305603e-002</internalNodes>
          <leafValues>
            -1.4785109460353851e-001 1.7419946193695068e-001</leafValues></_>
        <_>
          <internalNodes>
            0 -1 271 6.8905949592590332e-004</internalNodes>
          <leafValues>
            4.2060244083404541e-001 -6.7241556942462921e-002</leafValues></_>
        <_>
          <internalNodes>
            0 -1 595 1.8768073641695082e-004</internalNodes>
          <leafValues>
            -6.3490504026412964e-001 4.2301483452320099e-002</leafValues></_>
        <_>
          <internalNodes>
            0 -1 79 1.1387940030544996e-003</internalNodes>
          <leafValues>
            2.6795193552970886e-001 -1.1462262272834778e-001</leafValues></_>
        <_>
          <internalNodes>
            0 -1 509 1.4436729252338409e-003</internalNodes>
          <leafValues>
            -5.7123404741287231e-001 5.4674737155437469e-002</leafValues></_>
        <_>
          <internalNodes>
            0 -1 208 2.5917190941981971e-004</internalNodes>
          <leafValues>
            3.1349140405654907e-001 -8.2175567746162415e-002</leafValues></_>
        <_>
          <internalNodes>
            0 -1 564 3.1198631040751934e-003</internalNodes>
          <leafValues>
            -2.7451920509338379e-001 9.2440992593765259e-002</leafValues></_>
        <_>
          <internalNodes>
            0 -1 654 1.4842182397842407e-002</internalNodes>
          <leafValues>
            1.2523491680622101e-001 -2.1479801833629608e-001</leafValues></_>
        <_>
          <internalNodes>
            0 -1 656 5.3472672589123249e-003</internalNodes>
          <leafValues>
            -2.0221704244613647e-001 1.3009397685527802e-001</leafValues></_>
        <_>
          <internalNodes>
            0 -1 238 4.2462415876798332e-004</internalNodes>
          <leafValues>
            4.0095350146293640e-001 -5.7641647756099701e-002</leafValues></_>
        <_>
          <internalNodes>
            0 -1 450 6.1129010282456875e-004</internalNodes>
          <leafValues>
            -5.5041450262069702e-001 4.3453883379697800e-002</leafValues></_>
        <_>
          <internalNodes>
            0 -1 432 5.4013915359973907e-003</internalNodes>
          <leafValues>
            -2.4926774203777313e-001 8.7330617010593414e-002</leafValues></_>
        <_>
          <internalNodes>
            0 -1 169 3.0526201589964330e-004</internalNodes>
          <leafValues>
            4.0751957893371582e-001 -6.0565128922462463e-002</leafValues></_>
        <_>
          <internalNodes>
            0 -1 256 9.6395388245582581e-002</internalNodes>
          <leafValues>
            -2.8813527897000313e-002 6.9771951436996460e-001</leafValues></_>
        <_>
          <internalNodes>
            0 -1 472 3.5891734063625336e-002</internalNodes>
          <leafValues>
            -1.3661463558673859e-001 1.4840690791606903e-001</leafValues></_>
        <_>
          <internalNodes>
            0 -1 523 1.3759193941950798e-002</internalNodes>
          <leafValues>
            -1.6022257506847382e-001 1.4331512153148651e-001</leafValues></_>
        <_>
          <internalNodes>
            0 -1 157 3.1679712235927582e-002</internalNodes>
          <leafValues>
            -8.3354249596595764e-002 2.5807833671569824e-001</leafValues></_>
        <_>
          <internalNodes>
            0 -1 3 3.2793742138892412e-004</internalNodes>
          <leafValues>
            1.5395337343215942e-001 -1.7286241054534912e-001</leafValues></_>
        <_>
          <internalNodes>
            0 -1 336 4.9101244658231735e-003</internalNodes>
          <leafValues>
            1.8013252317905426e-001 -1.5577912330627441e-001</leafValues></_>
        <_>
          <internalNodes>
            0 -1 139 1.0628680139780045e-001</internalNodes>
          <leafValues>
            4.7067683190107346e-002 -5.2460509538650513e-001</leafValues></_>
        <_>
          <internalNodes>
            0 -1 343 1.2561222910881042e-001</internalNodes>
          <leafValues>
            2.5081567466259003e-002 -8.8046789169311523e-001</leafValues></_>
        <_>
          <internalNodes>
            0 -1 357 1.1976475361734629e-003</internalNodes>
          <leafValues>
            3.4443211555480957e-001 -6.8324662744998932e-002</leafValues></_>
        <_>
          <internalNodes>
            0 -1 473 2.1523330360651016e-004</internalNodes>
          <leafValues>
            -4.5646321773529053e-001 5.6850012391805649e-002</leafValues></_>
        <_>
          <internalNodes>
            0 -1 383 2.3042943328619003e-002</internalNodes>
          <leafValues>
            1.0905414074659348e-001 -2.1499413251876831e-001</leafValues></_>
        <_>
          <internalNodes>
            0 -1 46 9.4385268166661263e-003</internalNodes>
          <leafValues>
            -3.3991611003875732e-001 6.1764907091856003e-002</leafValues></_>
        <_>
          <internalNodes>
            0 -1 289 2.0039055496454239e-002</internalNodes>
          <leafValues>
            1.8954983353614807e-001 -1.2550890445709229e-001</leafValues></_>
        <_>
          <internalNodes>
            0 -1 50 3.0655512819066644e-004</internalNodes>
          <leafValues>
            2.1388153731822968e-001 -9.6641488373279572e-002</leafValues></_>
        <_>
          <internalNodes>
            0 -1 594 3.8168627768754959e-002</internalNodes>
          <leafValues>
            -8.1419140100479126e-002 3.0028194189071655e-001</leafValues></_>
        <_>
          <internalNodes>
            0 -1 136 3.2981224358081818e-002</internalNodes>
          <leafValues>
            -7.5654357671737671e-002 2.7049338817596436e-001</leafValues></_>
        <_>
          <internalNodes>
            0 -1 587 6.5052017569541931e-002</internalNodes>
          <leafValues>
            5.6760523468255997e-002 -4.5714521408081055e-001</leafValues></_>
        <_>
          <internalNodes>
            0 -1 2 4.2174826376140118e-003</internalNodes>
          <leafValues>
            9.1212034225463867e-002 -2.6244500279426575e-001</leafValues></_>
        <_>
          <internalNodes>
            0 -1 521 2.3415073752403259e-002</internalNodes>
          <leafValues>
            -8.9732289314270020e-002 3.2936406135559082e-001</leafValues></_>
        <_>
          <internalNodes>
            0 -1 596 4.0472514927387238e-002</internalNodes>
          <leafValues>
            -1.6386198997497559e-001 1.3891391456127167e-001</leafValues></_>
        <_>
          <internalNodes>
            0 -1 525 1.7800988256931305e-001</internalNodes>
          <leafValues>
            2.7002904564142227e-002 -7.8857642412185669e-001</leafValues></_>
        <_>
          <internalNodes>
            0 -1 83 6.1169065535068512e-002</internalNodes>
          <leafValues>
            4.6144902706146240e-002 -4.2152070999145508e-001</leafValues></_>
        <_>
          <internalNodes>
            0 -1 490 1.1335619725286961e-002</internalNodes>
          <leafValues>
            -1.9214114546775818e-001 1.1593795567750931e-001</leafValues></_>
        <_>
          <internalNodes>
            0 -1 71 8.8520912686362863e-004</internalNodes>
          <leafValues>
            2.1957883238792419e-001 -1.1900108307600021e-001</leafValues></_>
        <_>
          <internalNodes>
            0 -1 145 2.9236431146273389e-005</internalNodes>
          <leafValues>
            -5.9314864873886108e-001 3.4724753350019455e-002</leafValues></_>
        <_>
          <internalNodes>
            0 -1 258 2.0445201545953751e-002</internalNodes>
          <leafValues>
            1.1140840500593185e-001 -1.9700595736503601e-001</leafValues></_>
        <_>
          <internalNodes>
            0 -1 153 4.9990225583314896e-002</internalNodes>
          <leafValues>
            1.0283277183771133e-001 -2.2953356802463531e-001</leafValues></_>
        <_>
          <internalNodes>
            0 -1 497 1.0507442988455296e-002</internalNodes>
          <leafValues>
            -2.5293111801147461e-001 8.3679534494876862e-002</leafValues></_>
        <_>
          <internalNodes>
            0 -1 193 4.6113334246911108e-004</internalNodes>
          <leafValues>
            3.0061092972755432e-001 -6.4108543097972870e-002</leafValues></_>
        <_>
          <internalNodes>
            0 -1 57 1.2790077016688883e-004</internalNodes>
          <leafValues>
            -7.5347262620925903e-001 2.5601405650377274e-002</leafValues></_>
        <_>
          <internalNodes>
            0 -1 586 1.7560297250747681e-001</internalNodes>
          <leafValues>
            1.4098233543336391e-002 -9.5950388908386230e-001</leafValues></_>
        <_>
          <internalNodes>
            0 -1 191 4.3760508298873901e-002</internalNodes>
          <leafValues>
            -4.9404285848140717e-002 4.3700057268142700e-001</leafValues></_>
        <_>
          <internalNodes>
            0 -1 264 8.7345771491527557e-002</internalNodes>
          <leafValues>
            4.3410561978816986e-002 -4.7833490371704102e-001</leafValues></_>
        <_>
          <internalNodes>
            0 -1 327 8.4032714366912842e-002</internalNodes>
          <leafValues>
            -2.5905657559633255e-002 8.3931279182434082e-001</leafValues></_>
        <_>
          <internalNodes>
            0 -1 482 1.1697286367416382e-001</internalNodes>
          <leafValues>
            2.4977670982480049e-002 -8.3569091558456421e-001</leafValues></_>
        <_>
          <internalNodes>
            0 -1 300 6.8112805485725403e-002</internalNodes>
          <leafValues>
            -6.2844820320606232e-002 4.8404490947723389e-001</leafValues></_></weakClassifiers></_>
    <!-- stage 27 -->
    <_>
      <maxWeakCount>80</maxWeakCount>
      <stageThreshold>6.2859575264155865e-003</stageThreshold>
      <weakClassifiers>
        <_>
          <internalNodes>
            0 -1 449 8.5098832845687866e-002</internalNodes>
          <leafValues>
            8.9736300706863403e-001 -9.2307692766189575e-001</leafValues></_>
        <_>
          <internalNodes>
            0 -1 297 9.9563179537653923e-004</internalNodes>
          <leafValues>
            8.1750178337097168e-001 3.3839455246925354e-001</leafValues></_>
        <_>
          <internalNodes>
            0 -1 368 5.6210410548374057e-004</internalNodes>
          <leafValues>
            4.4233956933021545e-001 -1.1882167309522629e-001</leafValues></_>
        <_>
          <internalNodes>
            0 -1 405 4.5234024524688721e-002</internalNodes>
          <leafValues>
            -3.0644130706787109e-001 1.7846269905567169e-001</leafValues></_>
        <_>
          <internalNodes>
            0 -1 3 3.0775719787925482e-003</internalNodes>
          <leafValues>
            1.5383526682853699e-001 -3.8404977321624756e-001</leafValues></_>
        <_>
          <internalNodes>
            0 -1 100 9.6789345843717456e-004</internalNodes>
          <leafValues>
            2.5353166460990906e-001 -2.1236106753349304e-001</leafValues></_>
        <_>
          <internalNodes>
            0 -1 595 1.2077176943421364e-003</internalNodes>
          <leafValues>
            -7.1222651004791260e-001 7.2693467140197754e-002</leafValues></_>
        <_>
          <internalNodes>
            0 -1 259 6.9033456966280937e-003</internalNodes>
          <leafValues>
            1.4405617117881775e-001 -2.4916866421699524e-001</leafValues></_>
        <_>
          <internalNodes>
            0 -1 211 4.9682792276144028e-002</internalNodes>
          <leafValues>
            -1.5059943497180939e-001 3.0859643220901489e-001</leafValues></_>
        <_>
          <internalNodes>
            0 -1 654 3.6383986473083496e-002</internalNodes>
          <leafValues>
            6.9626830518245697e-002 -5.7885026931762695e-001</leafValues></_>
        <_>
          <internalNodes>
            0 -1 9 4.1603329591453075e-003</internalNodes>
          <leafValues>
            -3.4693804383277893e-001 9.8319791257381439e-002</leafValues></_>
        <_>
          <internalNodes>
            0 -1 154 6.9337361492216587e-004</internalNodes>
          <leafValues>
            3.4989443421363831e-001 -1.2857404351234436e-001</leafValues></_>
        <_>
          <internalNodes>
            0 -1 43 6.2013573944568634e-002</internalNodes>
          <leafValues>
            5.0810147076845169e-002 -7.3729717731475830e-001</leafValues></_>
        <_>
          <internalNodes>
            0 -1 158 2.6312271074857563e-005</internalNodes>
          <leafValues>
            -7.8821206092834473e-001 3.2022766768932343e-002</leafValues></_>
        <_>
          <internalNodes>
            0 -1 650 8.1197068095207214e-002</internalNodes>
          <leafValues>
            -5.3207539021968842e-002 6.3809442520141602e-001</leafValues></_>
        <_>
          <internalNodes>
            0 -1 170 5.1884189248085022e-002</internalNodes>
          <leafValues>
            -5.2833445370197296e-002 4.8354136943817139e-001</leafValues></_>
        <_>
          <internalNodes>
            0 -1 578 7.7904090285301208e-002</internalNodes>
          <leafValues>
            4.1879989206790924e-002 -6.5010702610015869e-001</leafValues></_>
        <_>
          <internalNodes>
            0 -1 525 1.6564387083053589e-001</internalNodes>
          <leafValues>
            3.0550945550203323e-002 -7.0148664712905884e-001</leafValues></_>
        <_>
          <internalNodes>
            0 -1 160 2.0525846630334854e-003</internalNodes>
          <leafValues>
            2.7008327841758728e-001 -1.1266417801380157e-001</leafValues></_>
        <_>
          <internalNodes>
            0 -1 446 8.0156227340921760e-005</internalNodes>
          <leafValues>
            -5.8835685253143311e-001 4.0838159620761871e-002</leafValues></_>
        <_>
          <internalNodes>
            0 -1 92 4.2943167500197887e-004</internalNodes>
          <leafValues>
            3.6949542164802551e-001 -1.0741613060235977e-001</leafValues></_>
        <_>
          <internalNodes>
            0 -1 257 1.2321897596120834e-001</internalNodes>
          <leafValues>
            4.4740889221429825e-002 -5.3498214483261108e-001</leafValues></_>
        <_>
          <internalNodes>
            0 -1 620 3.9867170155048370e-002</internalNodes>
          <leafValues>
            7.9812727868556976e-002 -3.2476249337196350e-001</leafValues></_>
        <_>
          <internalNodes>
            0 -1 352 7.0354864001274109e-002</internalNodes>
          <leafValues>
            -4.4635824859142303e-002 5.9526026248931885e-001</leafValues></_>
        <_>
          <internalNodes>
            0 -1 606 4.2502995580434799e-002</internalNodes>
          <leafValues>
            -2.1413183212280273e-001 1.2353967130184174e-001</leafValues></_>
        <_>
          <internalNodes>
            0 -1 1 3.8403883809223771e-004</internalNodes>
          <leafValues>
            1.8502517044544220e-001 -1.4279939234256744e-001</leafValues></_>
        <_>
          <internalNodes>
            0 -1 254 3.4307863563299179e-002</internalNodes>
          <leafValues>
            -1.3923080265522003e-001 2.1056365966796875e-001</leafValues></_>
        <_>
          <internalNodes>
            0 -1 469 2.7045097202062607e-002</internalNodes>
          <leafValues>
            6.9087229669094086e-002 -4.0538811683654785e-001</leafValues></_>
        <_>
          <internalNodes>
            0 -1 593 7.1589775383472443e-002</internalNodes>
          <leafValues>
            3.0349066480994225e-002 -7.7453881502151489e-001</leafValues></_>
        <_>
          <internalNodes>
            0 -1 128 4.0516798617318273e-004</internalNodes>
          <leafValues>
            -6.4407151937484741e-001 3.2002504914999008e-002</leafValues></_>
        <_>
          <internalNodes>
            0 -1 179 2.5393320247530937e-002</internalNodes>
          <leafValues>
            -1.3003721833229065e-001 2.0463724434375763e-001</leafValues></_>
        <_>
          <internalNodes>
            0 -1 258 1.9388826563954353e-002</internalNodes>
          <leafValues>
            1.2177728116512299e-001 -1.8907959759235382e-001</leafValues></_>
        <_>
          <internalNodes>
            0 -1 97 1.0155116021633148e-001</internalNodes>
          <leafValues>
            -9.4486057758331299e-002 2.3645974695682526e-001</leafValues></_>
        <_>
          <internalNodes>
            0 -1 185 1.0933416336774826e-001</internalNodes>
          <leafValues>
            -3.9268046617507935e-002 6.0688793659210205e-001</leafValues></_>
        <_>
          <internalNodes>
            0 -1 541 1.3354754075407982e-002</internalNodes>
          <leafValues>
            -1.0176880657672882e-001 2.2754761576652527e-001</leafValues></_>
        <_>
          <internalNodes>
            0 -1 501 2.5861557573080063e-002</internalNodes>
          <leafValues>
            -8.2835137844085693e-002 2.4251623451709747e-001</leafValues></_>
        <_>
          <internalNodes>
            0 -1 25 3.0978175345808268e-004</internalNodes>
          <leafValues>
            1.8463265895843506e-001 -1.2735927104949951e-001</leafValues></_>
        <_>
          <internalNodes>
            0 -1 411 3.7716340739279985e-004</internalNodes>
          <leafValues>
            -4.7213405370712280e-001 6.0281045734882355e-002</leafValues></_>
        <_>
          <internalNodes>
            0 -1 61 5.9279543347656727e-004</internalNodes>
          <leafValues>
            2.6885670423507690e-001 -1.1701459437608719e-001</leafValues></_>
        <_>
          <internalNodes>
            0 -1 494 5.4346494376659393e-002</internalNodes>
          <leafValues>
            -6.7724421620368958e-002 3.1900727748870850e-001</leafValues></_>
        <_>
          <internalNodes>
            0 -1 591 4.4081397354602814e-003</internalNodes>
          <leafValues>
            -3.1136760115623474e-001 7.3966525495052338e-002</leafValues></_>
        <_>
          <internalNodes>
            0 -1 534 1.3333104550838470e-002</internalNodes>
          <leafValues>
            -1.3419990241527557e-001 1.6351397335529327e-001</leafValues></_>
        <_>
          <internalNodes>
            0 -1 165 9.3732099048793316e-004</internalNodes>
          <leafValues>
            3.2705444097518921e-001 -8.3127580583095551e-002</leafValues></_>
        <_>
          <internalNodes>
            0 -1 196 3.2643802464008331e-002</internalNodes>
          <leafValues>
            -6.6793009638786316e-002 3.4726715087890625e-001</leafValues></_>
        <_>
          <internalNodes>
            0 -1 94 1.2804074585437775e-001</internalNodes>
          <leafValues>
            -2.9841531068086624e-002 6.1499881744384766e-001</leafValues></_>
        <_>
          <internalNodes>
            0 -1 576 1.6221013665199280e-001</internalNodes>
          <leafValues>
            3.5453557968139648e-002 -6.3061481714248657e-001</leafValues></_>
        <_>
          <internalNodes>
            0 -1 447 2.6257576420903206e-002</internalNodes>
          <leafValues>
            6.0273718088865280e-002 -3.4622806310653687e-001</leafValues></_>
        <_>
          <internalNodes>
            0 -1 281 1.8669902347028255e-003</internalNodes>
          <leafValues>
            2.0998588204383850e-001 -1.0504435002803802e-001</leafValues></_>
        <_>
          <internalNodes>
            0 -1 579 5.9220045804977417e-002</internalNodes>
          <leafValues>
            3.7445258349180222e-002 -6.9508075714111328e-001</leafValues></_>
        <_>
          <internalNodes>
            0 -1 122 1.0696467012166977e-001</internalNodes>
          <leafValues>
            2.1284246817231178e-002 -8.7204462289810181e-001</leafValues></_>
        <_>
          <internalNodes>
            0 -1 507 4.0877861902117729e-003</internalNodes>
          <leafValues>
            -2.1412372589111328e-001 1.1915351450443268e-001</leafValues></_>
        <_>
          <internalNodes>
            0 -1 337 6.5362255554646254e-004</internalNodes>
          <leafValues>
            2.4320685863494873e-001 -1.0743449628353119e-001</leafValues></_>
        <_>
          <internalNodes>
            0 -1 623 3.6735853645950556e-003</internalNodes>
          <leafValues>
            -2.0405992865562439e-001 1.1053592711687088e-001</leafValues></_>
        <_>
          <internalNodes>
            0 -1 229 1.4302720315754414e-002</internalNodes>
          <leafValues>
            1.3423481583595276e-001 -2.0557543635368347e-001</leafValues></_>
        <_>
          <internalNodes>
            0 -1 440 3.0519015126628801e-005</internalNodes>
          <leafValues>
            -5.1584368944168091e-001 3.8074739277362823e-002</leafValues></_>
        <_>
          <internalNodes>
            0 -1 44 7.1077310713008046e-004</internalNodes>
          <leafValues>
            2.0382043719291687e-001 -1.2325989454984665e-001</leafValues></_>
        <_>
          <internalNodes>
            0 -1 512 3.0024228617548943e-003</internalNodes>
          <leafValues>
            -2.3920938372612000e-001 9.6895195543766022e-002</leafValues></_>
        <_>
          <internalNodes>
            0 -1 289 1.2153113633394241e-001</internalNodes>
          <leafValues>
            -3.0321661382913589e-002 6.9611740112304688e-001</leafValues></_>
        <_>
          <internalNodes>
            0 -1 416 6.1074815690517426e-002</internalNodes>
          <leafValues>
            -6.7590974271297455e-002 3.3379474282264709e-001</leafValues></_>
        <_>
          <internalNodes>
            0 -1 228 6.4580753445625305e-002</internalNodes>
          <leafValues>
            -1.2357474118471146e-001 1.7961326241493225e-001</leafValues></_>
        <_>
          <internalNodes>
            0 -1 268 7.1884661912918091e-002</internalNodes>
          <leafValues>
            -4.8126444220542908e-002 4.1800403594970703e-001</leafValues></_>
        <_>
          <internalNodes>
            0 -1 93 7.5553014874458313e-002</internalNodes>
          <leafValues>
            -3.9702516049146652e-002 4.4799759984016418e-001</leafValues></_>
        <_>
          <internalNodes>
            0 -1 267 7.3646888136863708e-002</internalNodes>
          <leafValues>
            3.3632915467023849e-002 -5.9492349624633789e-001</leafValues></_>
        <_>
          <internalNodes>
            0 -1 261 5.1200579851865768e-002</internalNodes>
          <leafValues>
            -3.1992603093385696e-002 6.3462924957275391e-001</leafValues></_>
        <_>
          <internalNodes>
            0 -1 604 6.1907976865768433e-002</internalNodes>
          <leafValues>
            -2.1227547898888588e-002 7.0120877027511597e-001</leafValues></_>
        <_>
          <internalNodes>
            0 -1 529 5.1197733730077744e-002</internalNodes>
          <leafValues>
            3.8664799183607101e-002 -5.3954988718032837e-001</leafValues></_>
        <_>
          <internalNodes>
            0 -1 473 2.3114774376153946e-003</internalNodes>
          <leafValues>
            -2.9586079716682434e-001 6.4615629613399506e-002</leafValues></_>
        <_>
          <internalNodes>
            0 -1 222 4.9080408643931150e-004</internalNodes>
          <leafValues>
            3.7422561645507813e-001 -5.9390943497419357e-002</leafValues></_>
        <_>
          <internalNodes>
            0 -1 542 6.1563565395772457e-004</internalNodes>
          <leafValues>
            -5.8211463689804077e-001 3.1285513192415237e-002</leafValues></_>
        <_>
          <internalNodes>
            0 -1 226 5.8401084970682859e-004</internalNodes>
          <leafValues>
            3.3803415298461914e-001 -6.2559589743614197e-002</leafValues></_>
        <_>
          <internalNodes>
            0 -1 228 1.7564482986927032e-001</internalNodes>
          <leafValues>
            4.6033684164285660e-002 -4.5604965090751648e-001</leafValues></_>
        <_>
          <internalNodes>
            0 -1 214 8.0377893755212426e-004</internalNodes>
          <leafValues>
            2.6893353462219238e-001 -7.2116464376449585e-002</leafValues></_>
        <_>
          <internalNodes>
            0 -1 549 7.1974941529333591e-003</internalNodes>
          <leafValues>
            -1.8040354549884796e-001 1.2561751902103424e-001</leafValues></_>
        <_>
          <internalNodes>
            0 -1 106 6.5297365188598633e-002</internalNodes>
          <leafValues>
            -6.7809969186782837e-002 2.7777382731437683e-001</leafValues></_>
        <_>
          <internalNodes>
            0 -1 482 1.0494781285524368e-001</internalNodes>
          <leafValues>
            2.8585426509380341e-002 -7.8407359123229980e-001</leafValues></_>
        <_>
          <internalNodes>
            0 -1 274 5.3052473813295364e-002</internalNodes>
          <leafValues>
            -8.1252478063106537e-002 3.0938723683357239e-001</leafValues></_>
        <_>
          <internalNodes>
            0 -1 596 2.8854986652731895e-002</internalNodes>
          <leafValues>
            -2.1004864573478699e-001 8.9965440332889557e-002</leafValues></_>
        <_>
          <internalNodes>
            0 -1 131 4.8611983656883240e-002</internalNodes>
          <leafValues>
            -4.0561687201261520e-002 4.6186527609825134e-001</leafValues></_>
        <_>
          <internalNodes>
            0 -1 228 3.4711775369942188e-003</internalNodes>
          <leafValues>
            -4.7434663772583008e-001 4.2211614549160004e-002</leafValues></_>
        <_>
          <internalNodes>
            0 -1 311 4.4715948752127588e-004</internalNodes>
          <leafValues>
            2.9085430502891541e-001 -7.5082093477249146e-002</leafValues></_></weakClassifiers></_></stages>
  <features>
    <_>
      <rect>
        0 0 8 8 3</rect></_>
    <_>
      <rect>
        0 0 8 8 4</rect></_>
    <_>
      <rect>
        0 0 8 8 5</rect></_>
    <_>
      <rect>
        0 0 8 8 6</rect></_>
    <_>
      <rect>
        0 0 8 8 7</rect></_>
    <_>
      <rect>
        0 0 8 8 8</rect></_>
    <_>
      <rect>
        0 0 8 8 9</rect></_>
    <_>
      <rect>
        0 0 8 8 10</rect></_>
    <_>
      <rect>
        0 0 8 8 11</rect></_>
    <_>
      <rect>
        0 0 8 8 12</rect></_>
    <_>
      <rect>
        0 0 8 8 13</rect></_>
    <_>
      <rect>
        0 0 8 8 19</rect></_>
    <_>
      <rect>
        0 0 8 8 22</rect></_>
    <_>
      <rect>
        0 0 8 8 23</rect></_>
    <_>
      <rect>
        0 0 8 8 24</rect></_>
    <_>
      <rect>
        0 0 8 8 25</rect></_>
    <_>
      <rect>
        0 0 8 8 28</rect></_>
    <_>
      <rect>
        0 0 8 8 29</rect></_>
    <_>
      <rect>
        0 0 8 8 31</rect></_>
    <_>
      <rect>
        0 0 8 8 32</rect></_>
    <_>
      <rect>
        0 4 8 8 1</rect></_>
    <_>
      <rect>
        0 4 8 8 2</rect></_>
    <_>
      <rect>
        0 4 8 8 3</rect></_>
    <_>
      <rect>
        0 4 8 8 4</rect></_>
    <_>
      <rect>
        0 4 8 8 5</rect></_>
    <_>
      <rect>
        0 4 8 8 6</rect></_>
    <_>
      <rect>
        0 4 8 8 7</rect></_>
    <_>
      <rect>
        0 4 8 8 8</rect></_>
    <_>
      <rect>
        0 4 8 8 11</rect></_>
    <_>
      <rect>
        0 4 8 8 13</rect></_>
    <_>
      <rect>
        0 4 8 8 15</rect></_>
    <_>
      <rect>
        0 4 8 8 16</rect></_>
    <_>
      <rect>
        0 4 8 8 17</rect></_>
    <_>
      <rect>
        0 4 8 8 18</rect></_>
    <_>
      <rect>
        0 4 8 8 22</rect></_>
    <_>
      <rect>
        0 4 8 8 26</rect></_>
    <_>
      <rect>
        0 4 8 8 31</rect></_>
    <_>
      <rect>
        0 4 8 8 33</rect></_>
    <_>
      <rect>
        0 8 8 8 4</rect></_>
    <_>
      <rect>
        0 8 8 8 6</rect></_>
    <_>
      <rect>
        0 8 8 8 10</rect></_>
    <_>
      <rect>
        0 8 8 8 14</rect></_>
    <_>
      <rect>
        0 8 8 8 18</rect></_>
    <_>
      <rect>
        0 8 8 8 22</rect></_>
    <_>
      <rect>
        0 8 8 8 23</rect></_>
    <_>
      <rect>
        0 8 8 8 24</rect></_>
    <_>
      <rect>
        0 8 8 8 26</rect></_>
    <_>
      <rect>
        0 8 8 8 27</rect></_>
    <_>
      <rect>
        0 8 8 8 33</rect></_>
    <_>
      <rect>
        0 12 8 8 1</rect></_>
    <_>
      <rect>
        0 12 8 8 4</rect></_>
    <_>
      <rect>
        0 12 8 8 5</rect></_>
    <_>
      <rect>
        0 12 8 8 15</rect></_>
    <_>
      <rect>
        0 12 8 8 18</rect></_>
    <_>
      <rect>
        0 12 8 8 19</rect></_>
    <_>
      <rect>
        0 12 8 8 22</rect></_>
    <_>
      <rect>
        0 12 8 8 24</rect></_>
    <_>
      <rect>
        0 12 8 8 26</rect></_>
    <_>
      <rect>
        0 12 8 8 27</rect></_>
    <_>
      <rect>
        0 12 8 8 29</rect></_>
    <_>
      <rect>
        0 16 8 8 4</rect></_>
    <_>
      <rect>
        0 16 8 8 6</rect></_>
    <_>
      <rect>
        0 16 8 8 10</rect></_>
    <_>
      <rect>
        0 16 8 8 15</rect></_>
    <_>
      <rect>
        0 16 8 8 19</rect></_>
    <_>
      <rect>
        0 16 8 8 20</rect></_>
    <_>
      <rect>
        0 16 8 8 22</rect></_>
    <_>
      <rect>
        0 16 8 8 26</rect></_>
    <_>
      <rect>
        0 16 8 8 28</rect></_>
    <_>
      <rect>
        0 20 8 8 1</rect></_>
    <_>
      <rect>
        0 20 8 8 2</rect></_>
    <_>
      <rect>
        0 20 8 8 4</rect></_>
    <_>
      <rect>
        0 20 8 8 6</rect></_>
    <_>
      <rect>
        0 20 8 8 8</rect></_>
    <_>
      <rect>
        0 20 8 8 10</rect></_>
    <_>
      <rect>
        0 20 8 8 11</rect></_>
    <_>
      <rect>
        0 20 8 8 13</rect></_>
    <_>
      <rect>
        0 20 8 8 15</rect></_>
    <_>
      <rect>
        0 20 8 8 18</rect></_>
    <_>
      <rect>
        0 20 8 8 19</rect></_>
    <_>
      <rect>
        0 20 8 8 22</rect></_>
    <_>
      <rect>
        0 20 8 8 33</rect></_>
    <_>
      <rect>
        0 20 8 8 34</rect></_>
    <_>
      <rect>
        0 24 8 8 1</rect></_>
    <_>
      <rect>
        0 24 8 8 4</rect></_>
    <_>
      <rect>
        0 24 8 8 6</rect></_>
    <_>
      <rect>
        0 24 8 8 9</rect></_>
    <_>
      <rect>
        0 24 8 8 10</rect></_>
    <_>
      <rect>
        0 24 8 8 14</rect></_>
    <_>
      <rect>
        0 24 8 8 15</rect></_>
    <_>
      <rect>
        0 24 8 8 16</rect></_>
    <_>
      <rect>
        0 24 8 8 19</rect></_>
    <_>
      <rect>
        0 24 8 8 24</rect></_>
    <_>
      <rect>
        0 24 8 8 25</rect></_>
    <_>
      <rect>
        0 24 8 8 27</rect></_>
    <_>
      <rect>
        0 24 8 8 31</rect></_>
    <_>
      <rect>
        0 24 8 8 34</rect></_>
    <_>
      <rect>
        0 24 8 8 35</rect></_>
    <_>
      <rect>
        0 28 8 8 1</rect></_>
    <_>
      <rect>
        0 28 8 8 2</rect></_>
    <_>
      <rect>
        0 28 8 8 4</rect></_>
    <_>
      <rect>
        0 28 8 8 5</rect></_>
    <_>
      <rect>
        0 28 8 8 8</rect></_>
    <_>
      <rect>
        0 28 8 8 13</rect></_>
    <_>
      <rect>
        0 28 8 8 14</rect></_>
    <_>
      <rect>
        0 28 8 8 15</rect></_>
    <_>
      <rect>
        0 28 8 8 16</rect></_>
    <_>
      <rect>
        0 28 8 8 17</rect></_>
    <_>
      <rect>
        0 28 8 8 18</rect></_>
    <_>
      <rect>
        0 28 8 8 22</rect></_>
    <_>
      <rect>
        0 28 8 8 23</rect></_>
    <_>
      <rect>
        0 28 8 8 24</rect></_>
    <_>
      <rect>
        0 28 8 8 26</rect></_>
    <_>
      <rect>
        0 28 8 8 27</rect></_>
    <_>
      <rect>
        0 28 8 8 28</rect></_>
    <_>
      <rect>
        0 28 8 8 31</rect></_>
    <_>
      <rect>
        0 28 8 8 34</rect></_>
    <_>
      <rect>
        0 32 8 8 4</rect></_>
    <_>
      <rect>
        0 32 8 8 6</rect></_>
    <_>
      <rect>
        0 32 8 8 8</rect></_>
    <_>
      <rect>
        0 32 8 8 10</rect></_>
    <_>
      <rect>
        0 32 8 8 11</rect></_>
    <_>
      <rect>
        0 32 8 8 12</rect></_>
    <_>
      <rect>
        0 32 8 8 16</rect></_>
    <_>
      <rect>
        0 32 8 8 17</rect></_>
    <_>
      <rect>
        0 32 8 8 19</rect></_>
    <_>
      <rect>
        0 32 8 8 20</rect></_>
    <_>
      <rect>
        0 32 8 8 22</rect></_>
    <_>
      <rect>
        0 32 8 8 26</rect></_>
    <_>
      <rect>
        0 32 8 8 28</rect></_>
    <_>
      <rect>
        0 32 8 8 31</rect></_>
    <_>
      <rect>
        0 32 8 8 32</rect></_>
    <_>
      <rect>
        0 32 8 8 35</rect></_>
    <_>
      <rect>
        4 0 8 8 1</rect></_>
    <_>
      <rect>
        4 0 8 8 2</rect></_>
    <_>
      <rect>
        4 0 8 8 3</rect></_>
    <_>
      <rect>
        4 0 8 8 4</rect></_>
    <_>
      <rect>
        4 0 8 8 5</rect></_>
    <_>
      <rect>
        4 0 8 8 6</rect></_>
    <_>
      <rect>
        4 0 8 8 8</rect></_>
    <_>
      <rect>
        4 0 8 8 11</rect></_>
    <_>
      <rect>
        4 0 8 8 12</rect></_>
    <_>
      <rect>
        4 0 8 8 13</rect></_>
    <_>
      <rect>
        4 0 8 8 14</rect></_>
    <_>
      <rect>
        4 0 8 8 15</rect></_>
    <_>
      <rect>
        4 0 8 8 17</rect></_>
    <_>
      <rect>
        4 0 8 8 20</rect></_>
    <_>
      <rect>
        4 0 8 8 22</rect></_>
    <_>
      <rect>
        4 0 8 8 23</rect></_>
    <_>
      <rect>
        4 0 8 8 24</rect></_>
    <_>
      <rect>
        4 0 8 8 25</rect></_>
    <_>
      <rect>
        4 0 8 8 26</rect></_>
    <_>
      <rect>
        4 0 8 8 28</rect></_>
    <_>
      <rect>
        4 0 8 8 34</rect></_>
    <_>
      <rect>
        4 4 8 8 4</rect></_>
    <_>
      <rect>
        4 4 8 8 5</rect></_>
    <_>
      <rect>
        4 4 8 8 6</rect></_>
    <_>
      <rect>
        4 4 8 8 7</rect></_>
    <_>
      <rect>
        4 4 8 8 8</rect></_>
    <_>
      <rect>
        4 4 8 8 10</rect></_>
    <_>
      <rect>
        4 4 8 8 12</rect></_>
    <_>
      <rect>
        4 4 8 8 13</rect></_>
    <_>
      <rect>
        4 4 8 8 15</rect></_>
    <_>
      <rect>
        4 4 8 8 17</rect></_>
    <_>
      <rect>
        4 4 8 8 19</rect></_>
    <_>
      <rect>
        4 4 8 8 22</rect></_>
    <_>
      <rect>
        4 4 8 8 24</rect></_>
    <_>
      <rect>
        4 4 8 8 26</rect></_>
    <_>
      <rect>
        4 4 8 8 30</rect></_>
    <_>
      <rect>
        4 4 8 8 31</rect></_>
    <_>
      <rect>
        4 8 8 8 2</rect></_>
    <_>
      <rect>
        4 8 8 8 3</rect></_>
    <_>
      <rect>
        4 8 8 8 4</rect></_>
    <_>
      <rect>
        4 8 8 8 5</rect></_>
    <_>
      <rect>
        4 8 8 8 6</rect></_>
    <_>
      <rect>
        4 8 8 8 17</rect></_>
    <_>
      <rect>
        4 8 8 8 22</rect></_>
    <_>
      <rect>
        4 8 8 8 26</rect></_>
    <_>
      <rect>
        4 8 8 8 31</rect></_>
    <_>
      <rect>
        4 12 8 8 1</rect></_>
    <_>
      <rect>
        4 12 8 8 2</rect></_>
    <_>
      <rect>
        4 12 8 8 4</rect></_>
    <_>
      <rect>
        4 12 8 8 5</rect></_>
    <_>
      <rect>
        4 12 8 8 6</rect></_>
    <_>
      <rect>
        4 12 8 8 8</rect></_>
    <_>
      <rect>
        4 12 8 8 18</rect></_>
    <_>
      <rect>
        4 12 8 8 21</rect></_>
    <_>
      <rect>
        4 12 8 8 24</rect></_>
    <_>
      <rect>
        4 12 8 8 25</rect></_>
    <_>
      <rect>
        4 12 8 8 26</rect></_>
    <_>
      <rect>
        4 12 8 8 33</rect></_>
    <_>
      <rect>
        4 16 8 8 2</rect></_>
    <_>
      <rect>
        4 16 8 8 5</rect></_>
    <_>
      <rect>
        4 16 8 8 6</rect></_>
    <_>
      <rect>
        4 16 8 8 8</rect></_>
    <_>
      <rect>
        4 16 8 8 12</rect></_>
    <_>
      <rect>
        4 16 8 8 14</rect></_>
    <_>
      <rect>
        4 16 8 8 17</rect></_>
    <_>
      <rect>
        4 16 8 8 23</rect></_>
    <_>
      <rect>
        4 16 8 8 24</rect></_>
    <_>
      <rect>
        4 16 8 8 25</rect></_>
    <_>
      <rect>
        4 16 8 8 26</rect></_>
    <_>
      <rect>
        4 16 8 8 29</rect></_>
    <_>
      <rect>
        4 16 8 8 30</rect></_>
    <_>
      <rect>
        4 20 8 8 5</rect></_>
    <_>
      <rect>
        4 20 8 8 6</rect></_>
    <_>
      <rect>
        4 20 8 8 8</rect></_>
    <_>
      <rect>
        4 20 8 8 14</rect></_>
    <_>
      <rect>
        4 20 8 8 15</rect></_>
    <_>
      <rect>
        4 20 8 8 18</rect></_>
    <_>
      <rect>
        4 20 8 8 19</rect></_>
    <_>
      <rect>
        4 20 8 8 27</rect></_>
    <_>
      <rect>
        4 20 8 8 33</rect></_>
    <_>
      <rect>
        4 24 8 8 0</rect></_>
    <_>
      <rect>
        4 24 8 8 4</rect></_>
    <_>
      <rect>
        4 24 8 8 6</rect></_>
    <_>
      <rect>
        4 24 8 8 8</rect></_>
    <_>
      <rect>
        4 24 8 8 12</rect></_>
    <_>
      <rect>
        4 24 8 8 15</rect></_>
    <_>
      <rect>
        4 24 8 8 17</rect></_>
    <_>
      <rect>
        4 24 8 8 22</rect></_>
    <_>
      <rect>
        4 24 8 8 23</rect></_>
    <_>
      <rect>
        4 24 8 8 24</rect></_>
    <_>
      <rect>
        4 24 8 8 26</rect></_>
    <_>
      <rect>
        4 24 8 8 28</rect></_>
    <_>
      <rect>
        4 24 8 8 29</rect></_>
    <_>
      <rect>
        4 24 8 8 33</rect></_>
    <_>
      <rect>
        4 28 8 8 5</rect></_>
    <_>
      <rect>
        4 28 8 8 8</rect></_>
    <_>
      <rect>
        4 28 8 8 11</rect></_>
    <_>
      <rect>
        4 28 8 8 13</rect></_>
    <_>
      <rect>
        4 28 8 8 15</rect></_>
    <_>
      <rect>
        4 28 8 8 18</rect></_>
    <_>
      <rect>
        4 28 8 8 22</rect></_>
    <_>
      <rect>
        4 28 8 8 23</rect></_>
    <_>
      <rect>
        4 28 8 8 24</rect></_>
    <_>
      <rect>
        4 28 8 8 26</rect></_>
    <_>
      <rect>
        4 28 8 8 27</rect></_>
    <_>
      <rect>
        4 28 8 8 33</rect></_>
    <_>
      <rect>
        4 32 8 8 0</rect></_>
    <_>
      <rect>
        4 32 8 8 4</rect></_>
    <_>
      <rect>
        4 32 8 8 7</rect></_>
    <_>
      <rect>
        4 32 8 8 12</rect></_>
    <_>
      <rect>
        4 32 8 8 13</rect></_>
    <_>
      <rect>
        4 32 8 8 16</rect></_>
    <_>
      <rect>
        4 32 8 8 17</rect></_>
    <_>
      <rect>
        4 32 8 8 20</rect></_>
    <_>
      <rect>
        4 32 8 8 21</rect></_>
    <_>
      <rect>
        4 32 8 8 23</rect></_>
    <_>
      <rect>
        4 32 8 8 25</rect></_>
    <_>
      <rect>
        4 32 8 8 26</rect></_>
    <_>
      <rect>
        4 32 8 8 28</rect></_>
    <_>
      <rect>
        4 32 8 8 35</rect></_>
    <_>
      <rect>
        8 0 8 8 3</rect></_>
    <_>
      <rect>
        8 0 8 8 4</rect></_>
    <_>
      <rect>
        8 0 8 8 5</rect></_>
    <_>
      <rect>
        8 0 8 8 6</rect></_>
    <_>
      <rect>
        8 0 8 8 8</rect></_>
    <_>
      <rect>
        8 0 8 8 9</rect></_>
    <_>
      <rect>
        8 0 8 8 10</rect></_>
    <_>
      <rect>
        8 0 8 8 11</rect></_>
    <_>
      <rect>
        8 0 8 8 12</rect></_>
    <_>
      <rect>
        8 0 8 8 14</rect></_>
    <_>
      <rect>
        8 0 8 8 17</rect></_>
    <_>
      <rect>
        8 0 8 8 21</rect></_>
    <_>
      <rect>
        8 0 8 8 24</rect></_>
    <_>
      <rect>
        8 0 8 8 28</rect></_>
    <_>
      <rect>
        8 0 8 8 31</rect></_>
    <_>
      <rect>
        8 0 8 8 33</rect></_>
    <_>
      <rect>
        8 4 8 8 2</rect></_>
    <_>
      <rect>
        8 4 8 8 3</rect></_>
    <_>
      <rect>
        8 4 8 8 4</rect></_>
    <_>
      <rect>
        8 4 8 8 5</rect></_>
    <_>
      <rect>
        8 4 8 8 6</rect></_>
    <_>
      <rect>
        8 4 8 8 7</rect></_>
    <_>
      <rect>
        8 4 8 8 8</rect></_>
    <_>
      <rect>
        8 4 8 8 9</rect></_>
    <_>
      <rect>
        8 4 8 8 10</rect></_>
    <_>
      <rect>
        8 4 8 8 11</rect></_>
    <_>
      <rect>
        8 4 8 8 12</rect></_>
    <_>
      <rect>
        8 4 8 8 13</rect></_>
    <_>
      <rect>
        8 4 8 8 14</rect></_>
    <_>
      <rect>
        8 4 8 8 15</rect></_>
    <_>
      <rect>
        8 4 8 8 17</rect></_>
    <_>
      <rect>
        8 4 8 8 24</rect></_>
    <_>
      <rect>
        8 4 8 8 27</rect></_>
    <_>
      <rect>
        8 4 8 8 31</rect></_>
    <_>
      <rect>
        8 4 8 8 32</rect></_>
    <_>
      <rect>
        8 4 8 8 33</rect></_>
    <_>
      <rect>
        8 4 8 8 34</rect></_>
    <_>
      <rect>
        8 4 8 8 35</rect></_>
    <_>
      <rect>
        8 8 8 8 6</rect></_>
    <_>
      <rect>
        8 8 8 8 9</rect></_>
    <_>
      <rect>
        8 8 8 8 10</rect></_>
    <_>
      <rect>
        8 8 8 8 14</rect></_>
    <_>
      <rect>
        8 8 8 8 15</rect></_>
    <_>
      <rect>
        8 8 8 8 19</rect></_>
    <_>
      <rect>
        8 8 8 8 22</rect></_>
    <_>
      <rect>
        8 8 8 8 23</rect></_>
    <_>
      <rect>
        8 8 8 8 24</rect></_>
    <_>
      <rect>
        8 8 8 8 25</rect></_>
    <_>
      <rect>
        8 8 8 8 31</rect></_>
    <_>
      <rect>
        8 8 8 8 33</rect></_>
    <_>
      <rect>
        8 8 8 8 35</rect></_>
    <_>
      <rect>
        8 12 8 8 5</rect></_>
    <_>
      <rect>
        8 12 8 8 6</rect></_>
    <_>
      <rect>
        8 12 8 8 10</rect></_>
    <_>
      <rect>
        8 12 8 8 11</rect></_>
    <_>
      <rect>
        8 12 8 8 13</rect></_>
    <_>
      <rect>
        8 12 8 8 14</rect></_>
    <_>
      <rect>
        8 12 8 8 15</rect></_>
    <_>
      <rect>
        8 12 8 8 24</rect></_>
    <_>
      <rect>
        8 12 8 8 31</rect></_>
    <_>
      <rect>
        8 12 8 8 33</rect></_>
    <_>
      <rect>
        8 12 8 8 34</rect></_>
    <_>
      <rect>
        8 12 8 8 35</rect></_>
    <_>
      <rect>
        8 16 8 8 6</rect></_>
    <_>
      <rect>
        8 16 8 8 8</rect></_>
    <_>
      <rect>
        8 16 8 8 10</rect></_>
    <_>
      <rect>
        8 16 8 8 13</rect></_>
    <_>
      <rect>
        8 16 8 8 14</rect></_>
    <_>
      <rect>
        8 16 8 8 15</rect></_>
    <_>
      <rect>
        8 16 8 8 18</rect></_>
    <_>
      <rect>
        8 16 8 8 19</rect></_>
    <_>
      <rect>
        8 16 8 8 23</rect></_>
    <_>
      <rect>
        8 16 8 8 24</rect></_>
    <_>
      <rect>
        8 16 8 8 27</rect></_>
    <_>
      <rect>
        8 16 8 8 28</rect></_>
    <_>
      <rect>
        8 16 8 8 31</rect></_>
    <_>
      <rect>
        8 16 8 8 33</rect></_>
    <_>
      <rect>
        8 16 8 8 35</rect></_>
    <_>
      <rect>
        8 20 8 8 1</rect></_>
    <_>
      <rect>
        8 20 8 8 2</rect></_>
    <_>
      <rect>
        8 20 8 8 6</rect></_>
    <_>
      <rect>
        8 20 8 8 9</rect></_>
    <_>
      <rect>
        8 20 8 8 11</rect></_>
    <_>
      <rect>
        8 20 8 8 13</rect></_>
    <_>
      <rect>
        8 20 8 8 14</rect></_>
    <_>
      <rect>
        8 20 8 8 15</rect></_>
    <_>
      <rect>
        8 20 8 8 16</rect></_>
    <_>
      <rect>
        8 20 8 8 17</rect></_>
    <_>
      <rect>
        8 20 8 8 18</rect></_>
    <_>
      <rect>
        8 20 8 8 19</rect></_>
    <_>
      <rect>
        8 20 8 8 22</rect></_>
    <_>
      <rect>
        8 20 8 8 28</rect></_>
    <_>
      <rect>
        8 20 8 8 29</rect></_>
    <_>
      <rect>
        8 20 8 8 31</rect></_>
    <_>
      <rect>
        8 20 8 8 33</rect></_>
    <_>
      <rect>
        8 20 8 8 35</rect></_>
    <_>
      <rect>
        8 24 8 8 0</rect></_>
    <_>
      <rect>
        8 24 8 8 5</rect></_>
    <_>
      <rect>
        8 24 8 8 9</rect></_>
    <_>
      <rect>
        8 24 8 8 10</rect></_>
    <_>
      <rect>
        8 24 8 8 13</rect></_>
    <_>
      <rect>
        8 24 8 8 14</rect></_>
    <_>
      <rect>
        8 24 8 8 15</rect></_>
    <_>
      <rect>
        8 24 8 8 17</rect></_>
    <_>
      <rect>
        8 24 8 8 19</rect></_>
    <_>
      <rect>
        8 24 8 8 22</rect></_>
    <_>
      <rect>
        8 24 8 8 23</rect></_>
    <_>
      <rect>
        8 24 8 8 24</rect></_>
    <_>
      <rect>
        8 24 8 8 25</rect></_>
    <_>
      <rect>
        8 24 8 8 26</rect></_>
    <_>
      <rect>
        8 24 8 8 29</rect></_>
    <_>
      <rect>
        8 28 8 8 1</rect></_>
    <_>
      <rect>
        8 28 8 8 2</rect></_>
    <_>
      <rect>
        8 28 8 8 7</rect></_>
    <_>
      <rect>
        8 28 8 8 13</rect></_>
    <_>
      <rect>
        8 28 8 8 14</rect></_>
    <_>
      <rect>
        8 28 8 8 15</rect></_>
    <_>
      <rect>
        8 28 8 8 18</rect></_>
    <_>
      <rect>
        8 28 8 8 19</rect></_>
    <_>
      <rect>
        8 28 8 8 20</rect></_>
    <_>
      <rect>
        8 28 8 8 22</rect></_>
    <_>
      <rect>
        8 28 8 8 24</rect></_>
    <_>
      <rect>
        8 28 8 8 28</rect></_>
    <_>
      <rect>
        8 28 8 8 31</rect></_>
    <_>
      <rect>
        8 28 8 8 35</rect></_>
    <_>
      <rect>
        8 32 8 8 0</rect></_>
    <_>
      <rect>
        8 32 8 8 8</rect></_>
    <_>
      <rect>
        8 32 8 8 17</rect></_>
    <_>
      <rect>
        8 32 8 8 18</rect></_>
    <_>
      <rect>
        8 32 8 8 19</rect></_>
    <_>
      <rect>
        8 32 8 8 20</rect></_>
    <_>
      <rect>
        8 32 8 8 21</rect></_>
    <_>
      <rect>
        8 32 8 8 25</rect></_>
    <_>
      <rect>
        8 32 8 8 27</rect></_>
    <_>
      <rect>
        8 32 8 8 28</rect></_>
    <_>
      <rect>
        8 32 8 8 31</rect></_>
    <_>
      <rect>
        8 32 8 8 35</rect></_>
    <_>
      <rect>
        0 0 8 16 0</rect></_>
    <_>
      <rect>
        0 0 8 16 1</rect></_>
    <_>
      <rect>
        0 0 8 16 2</rect></_>
    <_>
      <rect>
        0 0 8 16 3</rect></_>
    <_>
      <rect>
        0 0 8 16 4</rect></_>
    <_>
      <rect>
        0 0 8 16 8</rect></_>
    <_>
      <rect>
        0 0 8 16 9</rect></_>
    <_>
      <rect>
        0 0 8 16 11</rect></_>
    <_>
      <rect>
        0 0 8 16 12</rect></_>
    <_>
      <rect>
        0 0 8 16 13</rect></_>
    <_>
      <rect>
        0 0 8 16 14</rect></_>
    <_>
      <rect>
        0 0 8 16 16</rect></_>
    <_>
      <rect>
        0 0 8 16 18</rect></_>
    <_>
      <rect>
        0 0 8 16 22</rect></_>
    <_>
      <rect>
        0 0 8 16 25</rect></_>
    <_>
      <rect>
        0 0 8 16 26</rect></_>
    <_>
      <rect>
        0 0 8 16 27</rect></_>
    <_>
      <rect>
        0 0 8 16 28</rect></_>
    <_>
      <rect>
        0 0 8 16 30</rect></_>
    <_>
      <rect>
        0 0 8 16 32</rect></_>
    <_>
      <rect>
        0 0 8 16 33</rect></_>
    <_>
      <rect>
        0 4 8 16 0</rect></_>
    <_>
      <rect>
        0 4 8 16 2</rect></_>
    <_>
      <rect>
        0 4 8 16 3</rect></_>
    <_>
      <rect>
        0 4 8 16 4</rect></_>
    <_>
      <rect>
        0 4 8 16 7</rect></_>
    <_>
      <rect>
        0 4 8 16 9</rect></_>
    <_>
      <rect>
        0 4 8 16 12</rect></_>
    <_>
      <rect>
        0 4 8 16 13</rect></_>
    <_>
      <rect>
        0 4 8 16 16</rect></_>
    <_>
      <rect>
        0 4 8 16 18</rect></_>
    <_>
      <rect>
        0 4 8 16 21</rect></_>
    <_>
      <rect>
        0 4 8 16 22</rect></_>
    <_>
      <rect>
        0 4 8 16 25</rect></_>
    <_>
      <rect>
        0 4 8 16 26</rect></_>
    <_>
      <rect>
        0 4 8 16 30</rect></_>
    <_>
      <rect>
        0 4 8 16 34</rect></_>
    <_>
      <rect>
        0 4 8 16 35</rect></_>
    <_>
      <rect>
        0 8 8 16 0</rect></_>
    <_>
      <rect>
        0 8 8 16 1</rect></_>
    <_>
      <rect>
        0 8 8 16 4</rect></_>
    <_>
      <rect>
        0 8 8 16 7</rect></_>
    <_>
      <rect>
        0 8 8 16 12</rect></_>
    <_>
      <rect>
        0 8 8 16 21</rect></_>
    <_>
      <rect>
        0 8 8 16 22</rect></_>
    <_>
      <rect>
        0 8 8 16 25</rect></_>
    <_>
      <rect>
        0 8 8 16 30</rect></_>
    <_>
      <rect>
        0 8 8 16 31</rect></_>
    <_>
      <rect>
        0 12 8 16 0</rect></_>
    <_>
      <rect>
        0 12 8 16 4</rect></_>
    <_>
      <rect>
        0 12 8 16 7</rect></_>
    <_>
      <rect>
        0 12 8 16 8</rect></_>
    <_>
      <rect>
        0 12 8 16 9</rect></_>
    <_>
      <rect>
        0 12 8 16 12</rect></_>
    <_>
      <rect>
        0 12 8 16 13</rect></_>
    <_>
      <rect>
        0 12 8 16 16</rect></_>
    <_>
      <rect>
        0 12 8 16 18</rect></_>
    <_>
      <rect>
        0 12 8 16 20</rect></_>
    <_>
      <rect>
        0 12 8 16 21</rect></_>
    <_>
      <rect>
        0 12 8 16 22</rect></_>
    <_>
      <rect>
        0 12 8 16 25</rect></_>
    <_>
      <rect>
        0 12 8 16 26</rect></_>
    <_>
      <rect>
        0 12 8 16 27</rect></_>
    <_>
      <rect>
        0 12 8 16 28</rect></_>
    <_>
      <rect>
        0 12 8 16 30</rect></_>
    <_>
      <rect>
        0 12 8 16 31</rect></_>
    <_>
      <rect>
        0 12 8 16 35</rect></_>
    <_>
      <rect>
        0 16 8 16 0</rect></_>
    <_>
      <rect>
        0 16 8 16 3</rect></_>
    <_>
      <rect>
        0 16 8 16 4</rect></_>
    <_>
      <rect>
        0 16 8 16 7</rect></_>
    <_>
      <rect>
        0 16 8 16 8</rect></_>
    <_>
      <rect>
        0 16 8 16 9</rect></_>
    <_>
      <rect>
        0 16 8 16 12</rect></_>
    <_>
      <rect>
        0 16 8 16 13</rect></_>
    <_>
      <rect>
        0 16 8 16 16</rect></_>
    <_>
      <rect>
        0 16 8 16 18</rect></_>
    <_>
      <rect>
        0 16 8 16 20</rect></_>
    <_>
      <rect>
        0 16 8 16 21</rect></_>
    <_>
      <rect>
        0 16 8 16 22</rect></_>
    <_>
      <rect>
        0 16 8 16 25</rect></_>
    <_>
      <rect>
        0 16 8 16 26</rect></_>
    <_>
      <rect>
        0 16 8 16 27</rect></_>
    <_>
      <rect>
        0 16 8 16 30</rect></_>
    <_>
      <rect>
        0 16 8 16 31</rect></_>
    <_>
      <rect>
        0 16 8 16 32</rect></_>
    <_>
      <rect>
        0 16 8 16 35</rect></_>
    <_>
      <rect>
        4 0 8 16 0</rect></_>
    <_>
      <rect>
        4 0 8 16 1</rect></_>
    <_>
      <rect>
        4 0 8 16 2</rect></_>
    <_>
      <rect>
        4 0 8 16 3</rect></_>
    <_>
      <rect>
        4 0 8 16 4</rect></_>
    <_>
      <rect>
        4 0 8 16 7</rect></_>
    <_>
      <rect>
        4 0 8 16 8</rect></_>
    <_>
      <rect>
        4 0 8 16 10</rect></_>
    <_>
      <rect>
        4 0 8 16 12</rect></_>
    <_>
      <rect>
        4 0 8 16 13</rect></_>
    <_>
      <rect>
        4 0 8 16 14</rect></_>
    <_>
      <rect>
        4 0 8 16 16</rect></_>
    <_>
      <rect>
        4 0 8 16 17</rect></_>
    <_>
      <rect>
        4 0 8 16 19</rect></_>
    <_>
      <rect>
        4 0 8 16 21</rect></_>
    <_>
      <rect>
        4 0 8 16 23</rect></_>
    <_>
      <rect>
        4 0 8 16 24</rect></_>
    <_>
      <rect>
        4 0 8 16 25</rect></_>
    <_>
      <rect>
        4 0 8 16 28</rect></_>
    <_>
      <rect>
        4 0 8 16 29</rect></_>
    <_>
      <rect>
        4 0 8 16 34</rect></_>
    <_>
      <rect>
        4 4 8 16 0</rect></_>
    <_>
      <rect>
        4 4 8 16 1</rect></_>
    <_>
      <rect>
        4 4 8 16 3</rect></_>
    <_>
      <rect>
        4 4 8 16 6</rect></_>
    <_>
      <rect>
        4 4 8 16 7</rect></_>
    <_>
      <rect>
        4 4 8 16 9</rect></_>
    <_>
      <rect>
        4 4 8 16 17</rect></_>
    <_>
      <rect>
        4 4 8 16 19</rect></_>
    <_>
      <rect>
        4 4 8 16 20</rect></_>
    <_>
      <rect>
        4 4 8 16 21</rect></_>
    <_>
      <rect>
        4 4 8 16 23</rect></_>
    <_>
      <rect>
        4 4 8 16 25</rect></_>
    <_>
      <rect>
        4 4 8 16 28</rect></_>
    <_>
      <rect>
        4 4 8 16 29</rect></_>
    <_>
      <rect>
        4 4 8 16 30</rect></_>
    <_>
      <rect>
        4 4 8 16 32</rect></_>
    <_>
      <rect>
        4 4 8 16 33</rect></_>
    <_>
      <rect>
        4 4 8 16 35</rect></_>
    <_>
      <rect>
        4 8 8 16 0</rect></_>
    <_>
      <rect>
        4 8 8 16 1</rect></_>
    <_>
      <rect>
        4 8 8 16 2</rect></_>
    <_>
      <rect>
        4 8 8 16 3</rect></_>
    <_>
      <rect>
        4 8 8 16 4</rect></_>
    <_>
      <rect>
        4 8 8 16 5</rect></_>
    <_>
      <rect>
        4 8 8 16 7</rect></_>
    <_>
      <rect>
        4 8 8 16 13</rect></_>
    <_>
      <rect>
        4 8 8 16 14</rect></_>
    <_>
      <rect>
        4 8 8 16 17</rect></_>
    <_>
      <rect>
        4 8 8 16 21</rect></_>
    <_>
      <rect>
        4 8 8 16 25</rect></_>
    <_>
      <rect>
        4 8 8 16 26</rect></_>
    <_>
      <rect>
        4 8 8 16 31</rect></_>
    <_>
      <rect>
        4 8 8 16 32</rect></_>
    <_>
      <rect>
        4 8 8 16 34</rect></_>
    <_>
      <rect>
        4 12 8 16 0</rect></_>
    <_>
      <rect>
        4 12 8 16 2</rect></_>
    <_>
      <rect>
        4 12 8 16 4</rect></_>
    <_>
      <rect>
        4 12 8 16 5</rect></_>
    <_>
      <rect>
        4 12 8 16 7</rect></_>
    <_>
      <rect>
        4 12 8 16 8</rect></_>
    <_>
      <rect>
        4 12 8 16 17</rect></_>
    <_>
      <rect>
        4 12 8 16 20</rect></_>
    <_>
      <rect>
        4 12 8 16 21</rect></_>
    <_>
      <rect>
        4 12 8 16 23</rect></_>
    <_>
      <rect>
        4 12 8 16 25</rect></_>
    <_>
      <rect>
        4 12 8 16 26</rect></_>
    <_>
      <rect>
        4 12 8 16 27</rect></_>
    <_>
      <rect>
        4 12 8 16 30</rect></_>
    <_>
      <rect>
        4 12 8 16 31</rect></_>
    <_>
      <rect>
        4 16 8 16 0</rect></_>
    <_>
      <rect>
        4 16 8 16 1</rect></_>
    <_>
      <rect>
        4 16 8 16 2</rect></_>
    <_>
      <rect>
        4 16 8 16 6</rect></_>
    <_>
      <rect>
        4 16 8 16 7</rect></_>
    <_>
      <rect>
        4 16 8 16 8</rect></_>
    <_>
      <rect>
        4 16 8 16 9</rect></_>
    <_>
      <rect>
        4 16 8 16 12</rect></_>
    <_>
      <rect>
        4 16 8 16 19</rect></_>
    <_>
      <rect>
        4 16 8 16 20</rect></_>
    <_>
      <rect>
        4 16 8 16 21</rect></_>
    <_>
      <rect>
        4 16 8 16 23</rect></_>
    <_>
      <rect>
        4 16 8 16 25</rect></_>
    <_>
      <rect>
        4 16 8 16 26</rect></_>
    <_>
      <rect>
        4 16 8 16 27</rect></_>
    <_>
      <rect>
        4 16 8 16 28</rect></_>
    <_>
      <rect>
        4 16 8 16 29</rect></_>
    <_>
      <rect>
        4 16 8 16 30</rect></_>
    <_>
      <rect>
        4 16 8 16 31</rect></_>
    <_>
      <rect>
        4 16 8 16 35</rect></_>
    <_>
      <rect>
        8 0 8 16 1</rect></_>
    <_>
      <rect>
        8 0 8 16 3</rect></_>
    <_>
      <rect>
        8 0 8 16 5</rect></_>
    <_>
      <rect>
        8 0 8 16 8</rect></_>
    <_>
      <rect>
        8 0 8 16 12</rect></_>
    <_>
      <rect>
        8 0 8 16 13</rect></_>
    <_>
      <rect>
        8 0 8 16 14</rect></_>
    <_>
      <rect>
        8 0 8 16 15</rect></_>
    <_>
      <rect>
        8 0 8 16 16</rect></_>
    <_>
      <rect>
        8 0 8 16 17</rect></_>
    <_>
      <rect>
        8 0 8 16 18</rect></_>
    <_>
      <rect>
        8 0 8 16 22</rect></_>
    <_>
      <rect>
        8 0 8 16 23</rect></_>
    <_>
      <rect>
        8 0 8 16 27</rect></_>
    <_>
      <rect>
        8 0 8 16 29</rect></_>
    <_>
      <rect>
        8 0 8 16 31</rect></_>
    <_>
      <rect>
        8 0 8 16 33</rect></_>
    <_>
      <rect>
        8 0 8 16 34</rect></_>
    <_>
      <rect>
        8 0 8 16 35</rect></_>
    <_>
      <rect>
        8 4 8 16 0</rect></_>
    <_>
      <rect>
        8 4 8 16 4</rect></_>
    <_>
      <rect>
        8 4 8 16 6</rect></_>
    <_>
      <rect>
        8 4 8 16 7</rect></_>
    <_>
      <rect>
        8 4 8 16 8</rect></_>
    <_>
      <rect>
        8 4 8 16 9</rect></_>
    <_>
      <rect>
        8 4 8 16 10</rect></_>
    <_>
      <rect>
        8 4 8 16 13</rect></_>
    <_>
      <rect>
        8 4 8 16 15</rect></_>
    <_>
      <rect>
        8 4 8 16 16</rect></_>
    <_>
      <rect>
        8 4 8 16 17</rect></_>
    <_>
      <rect>
        8 4 8 16 18</rect></_>
    <_>
      <rect>
        8 4 8 16 26</rect></_>
    <_>
      <rect>
        8 4 8 16 27</rect></_>
    <_>
      <rect>
        8 4 8 16 29</rect></_>
    <_>
      <rect>
        8 4 8 16 30</rect></_>
    <_>
      <rect>
        8 4 8 16 31</rect></_>
    <_>
      <rect>
        8 4 8 16 32</rect></_>
    <_>
      <rect>
        8 4 8 16 33</rect></_>
    <_>
      <rect>
        8 4 8 16 34</rect></_>
    <_>
      <rect>
        8 4 8 16 35</rect></_>
    <_>
      <rect>
        8 8 8 16 2</rect></_>
    <_>
      <rect>
        8 8 8 16 6</rect></_>
    <_>
      <rect>
        8 8 8 16 8</rect></_>
    <_>
      <rect>
        8 8 8 16 13</rect></_>
    <_>
      <rect>
        8 8 8 16 14</rect></_>
    <_>
      <rect>
        8 8 8 16 15</rect></_>
    <_>
      <rect>
        8 8 8 16 16</rect></_>
    <_>
      <rect>
        8 8 8 16 17</rect></_>
    <_>
      <rect>
        8 8 8 16 21</rect></_>
    <_>
      <rect>
        8 8 8 16 22</rect></_>
    <_>
      <rect>
        8 8 8 16 25</rect></_>
    <_>
      <rect>
        8 8 8 16 26</rect></_>
    <_>
      <rect>
        8 8 8 16 27</rect></_>
    <_>
      <rect>
        8 8 8 16 28</rect></_>
    <_>
      <rect>
        8 8 8 16 30</rect></_>
    <_>
      <rect>
        8 8 8 16 31</rect></_>
    <_>
      <rect>
        8 8 8 16 32</rect></_>
    <_>
      <rect>
        8 8 8 16 34</rect></_>
    <_>
      <rect>
        8 8 8 16 35</rect></_>
    <_>
      <rect>
        8 12 8 16 3</rect></_>
    <_>
      <rect>
        8 12 8 16 6</rect></_>
    <_>
      <rect>
        8 12 8 16 8</rect></_>
    <_>
      <rect>
        8 12 8 16 12</rect></_>
    <_>
      <rect>
        8 12 8 16 14</rect></_>
    <_>
      <rect>
        8 12 8 16 15</rect></_>
    <_>
      <rect>
        8 12 8 16 16</rect></_>
    <_>
      <rect>
        8 12 8 16 17</rect></_>
    <_>
      <rect>
        8 12 8 16 22</rect></_>
    <_>
      <rect>
        8 12 8 16 25</rect></_>
    <_>
      <rect>
        8 12 8 16 27</rect></_>
    <_>
      <rect>
        8 12 8 16 29</rect></_>
    <_>
      <rect>
        8 12 8 16 31</rect></_>
    <_>
      <rect>
        8 12 8 16 34</rect></_>
    <_>
      <rect>
        8 12 8 16 35</rect></_>
    <_>
      <rect>
        8 16 8 16 0</rect></_>
    <_>
      <rect>
        8 16 8 16 3</rect></_>
    <_>
      <rect>
        8 16 8 16 13</rect></_>
    <_>
      <rect>
        8 16 8 16 14</rect></_>
    <_>
      <rect>
        8 16 8 16 15</rect></_>
    <_>
      <rect>
        8 16 8 16 16</rect></_>
    <_>
      <rect>
        8 16 8 16 17</rect></_>
    <_>
      <rect>
        8 16 8 16 20</rect></_>
    <_>
      <rect>
        8 16 8 16 21</rect></_>
    <_>
      <rect>
        8 16 8 16 25</rect></_>
    <_>
      <rect>
        8 16 8 16 27</rect></_>
    <_>
      <rect>
        8 16 8 16 28</rect></_>
    <_>
      <rect>
        8 16 8 16 29</rect></_>
    <_>
      <rect>
        8 16 8 16 30</rect></_>
    <_>
      <rect>
        8 16 8 16 31</rect></_>
    <_>
      <rect>
        8 16 8 16 32</rect></_>
    <_>
      <rect>
        8 16 8 16 34</rect></_>
    <_>
      <rect>
        8 16 8 16 35</rect></_></features></cascade>
</opencv_storage>
